{
  "version": "1.0",
  "truncation": null,
  "padding": null,
  "added_tokens": [
    {
      "id": 0,
      "content": "<|pad|>",
      "single_word": false,
      "lstrip": false,
      "rstrip": false,
      "normalized": false,
      "special": true
    },
    {
      "id": 1,
      "content": "<|eos|>",
      "single_word": false,
      "lstrip": false,
      "rstrip": false,
      "normalized": false,
      "special": true
    },
    {
      "id": 2,
      "content": "<|unk|>",
      "single_word": false,
      "lstrip": false,
      "rstrip": false,
      "normalized": false,
      "special": true
    }
  ],
  "normalizer": null,
  "pre_tokenizer": {
    "type": "ByteLevel",
    "add_prefix_space": false,
    "trim_offsets": true,
    "use_regex": true
  },
  "post_processor": {
    "type": "ByteLevel",
    "add_prefix_space": true,
    "trim_offsets": false,
    "use_regex": true
  },
  "decoder": {
    "type": "ByteLevel",
    "add_prefix_space": true,
    "trim_offsets": true,
    "use_regex": true
  },
  "model": {
    "type": "BPE",
    "dropout": null,
    "unk_token": "<|unk|>",
    "continuing_subword_prefix": null,
    "end_of_word_suffix": null,
    "fuse_unk": false,
    "byte_fallback": false,
    "ignore_merges": false,
    "vocab": {
      "<|pad|>": 0,
      "<|eos|>": 1,
      "<|unk|>": 2,
      "!": 3,
      "\"": 4,
      "#": 5,
      "$": 6,
      "%": 7,
      "&": 8,
      "'": 9,
      "(": 10,
      ")": 11,
      "*": 12,
      "+": 13,
      ",": 14,
      "-": 15,
      ".": 16,
      "/": 17,
      "0": 18,
      "1": 19,
      "2": 20,
      "3": 21,
      "4": 22,
      "5": 23,
      "6": 24,
      "7": 25,
      "8": 26,
      "9": 27,
      ":": 28,
      ";": 29,
      "<": 30,
      ">": 31,
      "?": 32,
      "A": 33,
      "B": 34,
      "C": 35,
      "D": 36,
      "E": 37,
      "F": 38,
      "G": 39,
      "H": 40,
      "I": 41,
      "J": 42,
      "K": 43,
      "L": 44,
      "M": 45,
      "N": 46,
      "O": 47,
      "P": 48,
      "Q": 49,
      "R": 50,
      "S": 51,
      "T": 52,
      "U": 53,
      "V": 54,
      "W": 55,
      "X": 56,
      "Y": 57,
      "Z": 58,
      "[": 59,
      "\\": 60,
      "]": 61,
      "_": 62,
      "`": 63,
      "a": 64,
      "b": 65,
      "c": 66,
      "d": 67,
      "e": 68,
      "f": 69,
      "g": 70,
      "h": 71,
      "i": 72,
      "j": 73,
      "k": 74,
      "l": 75,
      "m": 76,
      "n": 77,
      "o": 78,
      "p": 79,
      "q": 80,
      "r": 81,
      "s": 82,
      "t": 83,
      "u": 84,
      "v": 85,
      "w": 86,
      "x": 87,
      "y": 88,
      "z": 89,
      "|": 90,
      "~": 91,
      "¡": 92,
      "¢": 93,
      "¦": 94,
      "©": 95,
      "«": 96,
      "¬": 97,
      "¯": 98,
      "°": 99,
      "±": 100,
      "³": 101,
      "´": 102,
      "¶": 103,
      "¹": 104,
      "»": 105,
      "Â": 106,
      "Ã": 107,
      "Å": 108,
      "Ë": 109,
      "â": 110,
      "ĉ": 111,
      "Ċ": 112,
      "Ġ": 113,
      "Ģ": 114,
      "Ĥ": 115,
      "ĥ": 116,
      "Ħ": 117,
      "ĵ": 118,
      "ļ": 119,
      "ľ": 120,
      "Ŀ": 121,
      "ł": 122,
      "Ń": 123,
      "he": 124,
      "Ġt": 125,
      "Ġa": 126,
      "Ġs": 127,
      "Ġw": 128,
      "nd": 129,
      "Ġthe": 130,
      "ed": 131,
      "Ġand": 132,
      "Ġto": 133,
      "Ġb": 134,
      "in": 135,
      "Ġh": 136,
      "Ġwa": 137,
      "re": 138,
      "ou": 139,
      "Ġf": 140,
      "it": 141,
      "Ġl": 142,
      "Ġc": 143,
      "Ġd": 144,
      "er": 145,
      "Ġhe": 146,
      "Ġm": 147,
      "Ġp": 148,
      "Ġwas": 149,
      "ĠT": 150,
      "om": 151,
      "Ġo": 152,
      "ay": 153,
      "ar": 154,
      "is": 155,
      "ing": 156,
      "il": 157,
      "Ġg": 158,
      "id": 159,
      "at": 160,
      "en": 161,
      "Ġn": 162,
      "Ġsa": 163,
      "Ġha": 164,
      "ĠThe": 165,
      "ĠS": 166,
      "an": 167,
      "im": 168,
      "or": 169,
      "on": 170,
      "Ġit": 171,
      "Ġth": 172,
      "ll": 173,
      "le": 174,
      "ĠH": 175,
      "ot": 176,
      "Ġher": 177,
      "et": 178,
      "ir": 179,
      "ĠShe": 180,
      "es": 181,
      "ĠHe": 182,
      "Ġin": 183,
      "ver": 184,
      "ĠThey": 185,
      "ut": 186,
      "ow": 187,
      "ck": 188,
      "Ġe": 189,
      "Ġu": 190,
      "Ġy": 191,
      "ld": 192,
      "oo": 193,
      "ily": 194,
      "Ġsaid": 195,
      "ig": 196,
      "Ġr": 197,
      "Ġbe": 198,
      "Ġ\"": 199,
      "am": 200,
      "ĠI": 201,
      "Ġst": 202,
      "ke": 203,
      "ce": 204,
      "ve": 205,
      "ith": 206,
      "pp": 207,
      "Ġshe": 208,
      "Lily": 209,
      "Ġwith": 210,
      "On": 211,
      "Ġon": 212,
      "Ġyou": 213,
      "ked": 214,
      "Ġof": 215,
      "ri": 216,
      "Ġpl": 217,
      "nt": 218,
      "Ġhis": 219,
      "ad": 220,
      "Ġso": 221,
      "very": 222,
      "Ġday": 223,
      "Ġthat": 224,
      "Ġup": 225,
      "ĠLily": 226,
      "Ġplay": 227,
      "Ġhad": 228,
      "Ġthey": 229,
      "st": 230,
      "Ġwe": 231,
      "Ġmom": 232,
      "ĠB": 233,
      "Ġfor": 234,
      "el": 235,
      "un": 236,
      "ould": 237,
      "'s": 238,
      "my": 239,
      "Ġli": 240,
      "The": 241,
      "ch": 242,
      "Ġhapp": 243,
      "Ġwant": 244,
      "ent": 245,
      "Ġsh": 246,
      "itt": 247,
      "her": 248,
      "out": 249,
      "Ġnot": 250,
      "Ġdo": 251,
      "ome": 252,
      "se": 253,
      "Ġvery": 254,
      "ly": 255,
      "end": 256,
      "all": 257,
      "ound": 258,
      "Ġwh": 259,
      "Ġk": 260,
      "ime": 261,
      "ittle": 262,
      "Ġtime": 263,
      "al": 264,
      "Ġlittle": 265,
      "Ġne": 266,
      "ĠM": 267,
      "Ġthere": 268,
      "ht": 269,
      "Ġis": 270,
      "Ġhappy": 271,
      "Ġbig": 272,
      "ĠIt": 273,
      "Ġre": 274,
      "Ġsm": 275,
      "Ġbut": 276,
      "Ġsaw": 277,
      "Ġan": 278,
      "ra": 279,
      "ry": 280,
      "riend": 281,
      ".\"": 282,
      "ĠĊ": 283,
      "Ġfriend": 284,
      "Ġas": 285,
      "ack": 286,
      "One": 287,
      "ide": 288,
      "ake": 289,
      "ug": 290,
      "'t": 291,
      "!\"": 292,
      "Ġloo": 293,
      "Ġwere": 294,
      "ter": 295,
      "ved": 296,
      "Ġlo": 297,
      "ore": 298,
      "Once": 299,
      "Ġse": 300,
      "Ġtoo": 301,
      "Ġhim": 302,
      "Ġbo": 303,
      "Ġgo": 304,
      "Ġare": 305,
      "ec": 306,
      "ĠTim": 307,
      "Ġj": 308,
      "Ġwanted": 309,
      "ard": 310,
      "ill": 311,
      "irl": 312,
      "Ġthem": 313,
      "Ġupon": 314,
      "Ġgirl": 315,
      "Ġtheir": 316,
      "Ġout": 317,
      "Ġat": 318,
      "ind": 319,
      "ur": 320,
      "Ġdid": 321,
      "way": 322,
      "fu": 323,
      "Ġsp": 324,
      "ĠA": 325,
      "Ġcould": 326,
      "Ġsmil": 327,
      "hen": 328,
      "Ġhave": 329,
      "ain": 330,
      "hed": 331,
      "art": 332,
      "ĠBen": 333,
      "rom": 334,
      "Ġex": 335,
      "Ġcan": 336,
      "Ġwent": 337,
      "ic": 338,
      "Ġar": 339,
      "lp": 340,
      "ood": 341,
      "ful": 342,
      "Ġfriends": 343,
      "?\"": 344,
      "hing": 345,
      "Ġnam": 346,
      "Ġkn": 347,
      "ĠJ": 348,
      "ight": 349,
      "Ġhelp": 350,
      "Ġsay": 351,
      "Ġall": 352,
      "one": 353,
      "um": 354,
      "ark": 355,
      "Ġback": 356,
      "You": 357,
      "Ġfun": 358,
      "ĠTom": 359,
      "Ġcl": 360,
      "are": 361,
      "Ġno": 362,
      "Ġle": 363,
      "op": 364,
      "Ġsc": 365,
      "Ġnamed": 366,
      "Ġal": 367,
      "elt": 368,
      "oug": 369,
      "Ġman": 370,
      "Ġloved": 371,
      "side": 372,
      "Ġsmiled": 373,
      "ĠOne": 374,
      "Ġtoy": 375,
      "Ġlike": 376,
      "ick": 377,
      "Ġfelt": 378,
      "Ġasked": 379,
      "Ġfe": 380,
      "Ġsome": 381,
      "Ġsee": 382,
      "Ġlooked": 383,
      "Ġme": 384,
      "ame": 385,
      "Ġaround": 386,
      "Ġro": 387,
      "ĠTimmy": 388,
      "omet": 389,
      "ĠW": 390,
      "ure": 391,
      "Ġbr": 392,
      "Ġbir": 393,
      "get": 394,
      "ice": 395,
      "Ġboy": 396,
      "Ġwould": 397,
      "ong": 398,
      "Ġstart": 399,
      "as": 400,
      "Ġbird": 401,
      "Ġsomet": 402,
      "ings": 403,
      "Ġfa": 404,
      "ade": 405,
      "Ġmake": 406,
      "Ġag": 407,
      "Ġwhat": 408,
      "Ġwor": 409,
      "dd": 410,
      "ĠYou": 411,
      ",\"": 412,
      "Ġsays": 413,
      "ĠBut": 414,
      "king": 415,
      "Ġran": 416,
      "Ġaway": 417,
      "own": 418,
      "gether": 419,
      "Ġtre": 420,
      "Ã¢": 421,
      "âĤ": 422,
      "âĤ¬": 423,
      "ag": 424,
      "ared": 425,
      "ie": 426,
      "oud": 427,
      "Ġmade": 428,
      "Ġstarted": 429,
      "if": 430,
      "Ġcar": 431,
      "Ġtogether": 432,
      "Ġsomething": 433,
      "Ġco": 434,
      "ther": 435,
      "Ġpark": 436,
      "Ġsad": 437,
      "Ġother": 438,
      "ited": 439,
      "Ġput": 440,
      "Ġnew": 441,
      "Ġfrom": 442,
      "ell": 443,
      "Ġhug": 444,
      "Ġpr": 445,
      "ble": 446,
      "Ġagain": 447,
      "ook": 448,
      "Ġexc": 449,
      "ach": 450,
      "ĠL": 451,
      "Ġgood": 452,
      "Ġhome": 453,
      "Ġla": 454,
      "Ġmu": 455,
      "ss": 456,
      "Ġwhen": 457,
      "Ġfl": 458,
      "ried": 459,
      "ep": 460,
      "Ġwho": 461,
      "est": 462,
      "Ġthen": 463,
      "Ġfound": 464,
      "Ġch": 465,
      "Ġdec": 466,
      "pped": 467,
      "hat": 468,
      "Ġget": 469,
      "Ġwal": 470,
      "Ġplaying": 471,
      "qu": 472,
      "Ġsw": 473,
      "ought": 474,
      "nn": 475,
      "Ġliked": 476,
      "uck": 477,
      "Ġthings": 478,
      "ĠE": 479,
      "ally": 480,
      "pl": 481,
      "ous": 482,
      "Ġgot": 483,
      "Ġbl": 484,
      "Ġexcited": 485,
      "ro": 486,
      "ided": 487,
      "ave": 488,
      "Ġcame": 489,
      "ara": 490,
      "Ġevery": 491,
      "Ġdecided": 492,
      "Ġyour": 493,
      "Ġdog": 494,
      "ĠMom": 495,
      "ax": 496,
      "Ġscared": 497,
      "ĠD": 498,
      "Ġone": 499,
      "Ġdown": 500,
      "ust": 501,
      "Ġv": 502,
      "Ġfind": 503,
      "Ġcare": 504,
      "They": 505,
      "nna": 506,
      "ouse": 507,
      "ap": 508,
      "Ġbec": 509,
      "ist": 510,
      "Ġthan": 511,
      "ny": 512,
      "Ġfeel": 513,
      "ue": 514,
      "Ġdad": 515,
      "Ġab": 516,
      "Ġwill": 517,
      "Ġmy": 518,
      "arn": 519,
      "Ġlook": 520,
      "udd": 521,
      "our": 522,
      "Ġgr": 523,
      "ers": 524,
      "Ġke": 525,
      "Ġgra": 526,
      "us": 527,
      "Ġdidn": 528,
      "ways": 529,
      "ess": 530,
      "Ġpo": 531,
      "Ġtoys": 532,
      "Ġtook": 533,
      "fe": 534,
      "nder": 535,
      "Ġabout": 536,
      "Ġball": 537,
      "Ġalways": 538,
      "Ġlot": 539,
      "Ġmommy": 540,
      "ĠSam": 541,
      "ant": 542,
      "Ġkne": 543,
      "bb": 544,
      "Ġtree": 545,
      "ise": 546,
      "ĠF": 547,
      "Ġoutside": 548,
      "Ġthought": 549,
      "ite": 550,
      "Ġmore": 551,
      "Ġta": 552,
      "ened": 553,
      "Ġlearn": 554,
      "ret": 555,
      "Ġho": 556,
      "ched": 557,
      "Ġknow": 558,
      "eci": 559,
      "Ġint": 560,
      "ged": 561,
      "Ġsor": 562,
      "Ġcat": 563,
      "Ġlaug": 564,
      "Ġtake": 565,
      "Ġold": 566,
      "ive": 567,
      "ia": 568,
      "ĠMax": 569,
      "Ġspeci": 570,
      "Ġspecial": 571,
      "Ġknew": 572,
      "Ġany": 573,
      "Ġpe": 574,
      "udden": 575,
      "fter": 576,
      "Ġhow": 577,
      "Ġsorry": 578,
      "Ġtr": 579,
      "ma": 580,
      "ink": 581,
      "But": 582,
      "Ġshow": 583,
      "ish": 584,
      "uddenly": 585,
      "Ġrun": 586,
      "au": 587,
      "Ġsl": 588,
      "Ġmuch": 589,
      "Ġtw": 590,
      "Ġhand": 591,
      "and": 592,
      "Ġor": 593,
      "Ġhouse": 594,
      "Ġop": 595,
      "Ġmo": 596,
      "Ġwater": 597,
      "Ġsk": 598,
      "ven": 599,
      "Ġtried": 600,
      "Ġinto": 601,
      "Ġsun": 602,
      "ank": 603,
      "Ġinside": 604,
      "Tom": 605,
      "Ġclo": 606,
      "ate": 607,
      "Ġtold": 608,
      "Ġgave": 609,
      "ump": 610,
      "ĠSara": 611,
      "ty": 612,
      "Ġproud": 613,
      "Ġeach": 614,
      "Ġqu": 615,
      "Ġen": 616,
      "ĠWe": 617,
      "Ġif": 618,
      "Ġover": 619,
      "Ġroom": 620,
      "Ġcouldn": 621,
      "Ġheard": 622,
      "ace": 623,
      "Ġnever": 624,
      "Ġeat": 625,
      "Ġthis": 626,
      "ĠAnna": 627,
      "Ġpret": 628,
      "other": 629,
      "dy": 630,
      "ĠEvery": 631,
      "ause": 632,
      "by": 633,
      "ak": 634,
      "Ġplayed": 635,
      "Ġpick": 636,
      "ion": 637,
      "Mom": 638,
      "etter": 639,
      "Ġhugged": 640,
      "Ġexpl": 641,
      "here": 642,
      "ge": 643,
      "Ġcom": 644,
      "Ġgre": 645,
      "Ġjust": 646,
      "Ġnice": 647,
      "Ġbox": 648,
      "Ġmany": 649,
      "Ġneed": 650,
      "Ġwat": 651,
      "oth": 652,
      "Ġstr": 653,
      "sed": 654,
      "Ġbecause": 655,
      "Ġoff": 656,
      "ile": 657,
      "'m": 658,
      "gry": 659,
      "Ġsmall": 660,
      "iz": 661,
      "Ġbu": 662,
      "ving": 663,
      "Ġlong": 664,
      "Ġjo": 665,
      "Ġsn": 666,
      "ine": 667,
      "Ġfo": 668,
      "imal": 669,
      "Ġanimal": 670,
      "Ġbear": 671,
      "Ġtry": 672,
      "ough": 673,
      "uc": 674,
      "ort": 675,
      "urt": 676,
      "Ġlearned": 677,
      "Ġunt": 678,
      "sel": 679,
      "ild": 680,
      "Ġlove": 681,
      "Ġuntil": 682,
      "ĠMia": 683,
      "Ġkind": 684,
      "ft": 685,
      "Ġbetter": 686,
      "Ġflow": 687,
      "ĠJack": 688,
      "He": 689,
      "ĠAnd": 690,
      "Ġte": 691,
      "Ġend": 692,
      "Ġim": 693,
      "urn": 694,
      "Ġdon": 695,
      "ves": 696,
      "Ġcle": 697,
      "Ġpu": 698,
      "Ġcall": 699,
      "Ġbest": 700,
      "ady": 701,
      "ars": 702,
      "ream": 703,
      "aut": 704,
      "Ġad": 705,
      "Yes": 706,
      "vent": 707,
      "Ġfast": 708,
      "Ġcareful": 709,
      "urp": 710,
      "arden": 711,
      "Ġgarden": 712,
      "ĠC": 713,
      "ĠJo": 714,
      "Ġbeaut": 715,
      "Ġfi": 716,
      "Th": 717,
      "ber": 718,
      "Ġsky": 719,
      "Ġthanked": 720,
      "Ġbra": 721,
      "Ġjump": 722,
      "Ġeven": 723,
      "ies": 724,
      "Ġloud": 725,
      "ase": 726,
      "pt": 727,
      "Ġby": 728,
      "ĠSo": 729,
      "Ġlaughed": 730,
      "em": 731,
      "ĠHer": 732,
      "Ġche": 733,
      "iny": 734,
      "wn": 735,
      "self": 736,
      "Ġgl": 737,
      "lly": 738,
      "Ġlist": 739,
      "It": 740,
      "Ġcome": 741,
      "Ġbeauti": 742,
      "Ġhard": 743,
      "Ġstill": 744,
      "Ġhurt": 745,
      "lew": 746,
      "Ġbeautiful": 747,
      "Ġanimals": 748,
      "Ġlots": 749,
      "Ġfam": 750,
      "Ġway": 751,
      "Ġwo": 752,
      "Åĵ": 753,
      "Ġra": 754,
      "Ġunder": 755,
      "ĠThen": 756,
      "hes": 757,
      "Ġlet": 758,
      "Ġstay": 759,
      "be": 760,
      "ĠFrom": 761,
      "ect": 762,
      "Ġbad": 763,
      "ning": 764,
      "ct": 765,
      "Ġsafe": 766,
      "Ġcol": 767,
      "ool": 768,
      "Ġcu": 769,
      "ast": 770,
      "Ġboth": 771,
      "ĠHis": 772,
      "ople": 773,
      "ock": 774,
      "kay": 775,
      "Ġrem": 776,
      "Ġbook": 777,
      "Tim": 778,
      "Ġangry": 779,
      "Ġlived": 780,
      "ished": 781,
      "Ġits": 782,
      "Ġimp": 783,
      "ree": 784,
      "ress": 785,
      "Ġtwo": 786,
      "ĠÃ¢": 787,
      "Ġpeople": 788,
      "ane": 789,
      "Ġbrave": 790,
      "Ġfamily": 791,
      "Ġshould": 792,
      "No": 793,
      "Ġred": 794,
      "urpr": 795,
      "igh": 796,
      "Ġwalked": 797,
      "Ġsurpr": 798,
      "Ġflew": 799,
      "Ġfin": 800,
      "Ġstor": 801,
      "Ġshare": 802,
      "Ġdan": 803,
      "Ġsoon": 804,
      "ucy": 805,
      "When": 806,
      "Ġfly": 807,
      "ob": 808,
      "xt": 809,
      "Ġpic": 810,
      "Ġdoll": 811,
      "fore": 812,
      "led": 813,
      "Ġkept": 814,
      "Ġcalled": 815,
      "ip": 816,
      "Ġfore": 817,
      "Ben": 818,
      "Let": 819,
      "Ġrock": 820,
      "Ġclean": 821,
      "Ġpretty": 822,
      "ised": 823,
      "Ġdoor": 824,
      "dded": 825,
      "Ġshiny": 826,
      "ĠP": 827,
      "ĠWhen": 828,
      "Ġgoing": 829,
      "Ġkeep": 830,
      "Ġdra": 831,
      "hn": 832,
      "Ġnoise": 833,
      "Ġnow": 834,
      "Ġreal": 835,
      "Ġwind": 836,
      "Ġopened": 837,
      "Ġadvent": 838,
      "Ġturn": 839,
      "ummy": 840,
      "Ġide": 841,
      "ary": 842,
      "so": 843,
      "Ġcry": 844,
      "Ġbefore": 845,
      "Ġcon": 846,
      "age": 847,
      "Ġground": 848,
      "Ġalso": 849,
      "Ġsto": 850,
      "les": 851,
      "âĤ¬â": 852,
      "illy": 853,
      "oon": 854,
      "Ġey": 855,
      "Ġcolor": 856,
      "Ġexplore": 857,
      "ied": 858,
      "Ġfar": 859,
      "Ġhas": 860,
      "Ġidea": 861,
      "Ġfr": 862,
      "What": 863,
      "kes": 864,
      "imb": 865,
      "Ġwar": 866,
      "th": 867,
      "ture": 868,
      "Ġun": 869,
      "thing": 870,
      "Ġnext": 871,
      "Ġpicked": 872,
      "Ġclimb": 873,
      "uch": 874,
      "Ġnodded": 875,
      "That": 876,
      "oy": 877,
      "aybe": 878,
      "Ġsmile": 879,
      "Ġthr": 880,
      "Ġfeeling": 881,
      "Ġtruck": 882,
      "Ġwhile": 883,
      "Ġbed": 884,
      "ĠDad": 885,
      "Ġwalking": 886,
      "Ħ¢": 887,
      "âĤ¬âĦ¢": 888,
      "eet": 889,
      "Ġwr": 890,
      "Ġadventure": 891,
      "Thank": 892,
      "ger": 893,
      "ĠLucy": 894,
      "Ġpicture": 895,
      "ac": 896,
      "ĠG": 897,
      "Ġbeing": 898,
      "Ġthink": 899,
      "Ġgive": 900,
      "Ġfood": 901,
      "Ġma": 902,
      "ff": 903,
      "iced": 904,
      "Ġtra": 905,
      "Ġdif": 906,
      "Ġbre": 907,
      "pot": 908,
      "joy": 909,
      "Ġbro": 910,
      "Ġtow": 911,
      "ted": 912,
      "ious": 913,
      "Ġlisten": 914,
      "Ġclos": 915,
      "Ġeyes": 916,
      "Ġwait": 917,
      "ught": 918,
      "Ġown": 919,
      "Ġfish": 920,
      "Ġstopped": 921,
      "Ġafter": 922,
      "Ġlooking": 923,
      "ting": 924,
      "Ġflowers": 925,
      "ember": 926,
      "Ġdel": 927,
      "Ġwalk": 928,
      "Ġhands": 929,
      "Ġblue": 930,
      "ized": 931,
      "She": 932,
      "Ġslide": 933,
      "Ġshout": 934,
      "Ġrepl": 935,
      "Ġgreat": 936,
      "Ġever": 937,
      "Ġmean": 938,
      "Ġenjoy": 939,
      "Ġvo": 940,
      "Ġhead": 941,
      "irst": 942,
      "ila": 943,
      "Ġrain": 944,
      "ĠSuddenly": 945,
      "Suddenly": 946,
      "Ġnear": 947,
      "Ġnoticed": 948,
      "Ġdis": 949,
      "Ġforest": 950,
      "Ġus": 951,
      "Ġask": 952,
      "Ġimport": 953,
      "Ġquick": 954,
      "Ġremember": 955,
      "bbit": 956,
      "Ġsound": 957,
      "Ġapp": 958,
      "llow": 959,
      "Ġokay": 960,
      "Ġde": 961,
      "maz": 962,
      "Ġwork": 963,
      "Ġshowed": 964,
      "Ġwonder": 965,
      "Ġamaz": 966,
      "Ġtal": 967,
      "lease": 968,
      "Ġstick": 969,
      "Ġwatch": 970,
      "Ġimportant": 971,
      "bbed": 972,
      "We": 973,
      "bye": 974,
      "Ġstrong": 975,
      "gan": 976,
      "Ġac": 977,
      "Anna": 978,
      "Ġeveryone": 979,
      "Ġbright": 980,
      "day": 981,
      "fere": 982,
      "Ġrabbit": 983,
      "Ġdiffere": 984,
      "Ġboat": 985,
      "Ġour": 986,
      "Ġreplied": 987,
      "Ġsqu": 988,
      "Ġwhere": 989,
      "Ġright": 990,
      "Ġfollow": 991,
      "ĠSpot": 992,
      "Ġuse": 993,
      "Ġdoes": 994,
      "co": 995,
      "Ġwatched": 996,
      "able": 997,
      "Ġhop": 998,
      "Ġyell": 999,
      "Ġface": 1000,
      "ath": 1001,
      "Ġmor": 1002,
      "Ġquickly": 1003,
      "ĠSue": 1004,
      "Look": 1005,
      "ered": 1006,
      "Ġstore": 1007,
      "ĠN": 1008,
      "Ġdress": 1009,
      "Ġsure": 1010,
      "Ġbeen": 1011,
      "Ġbecame": 1012,
      "ange": 1013,
      "Ġplace": 1014,
      "Sara": 1015,
      "ng": 1016,
      "Ġdifferent": 1017,
      "Ġchild": 1018,
      "ĠMommy": 1019,
      "Ġcuri": 1020,
      "aught": 1021,
      "Ġwarm": 1022,
      "Ġye": 1023,
      "Ġgoodbye": 1024,
      "Ġam": 1025,
      "So": 1026,
      "Ġmag": 1027,
      "ĠBob": 1028,
      "Ġhigh": 1029,
      "Ġvoice": 1030,
      "ĠR": 1031,
      "Ġforg": 1032,
      "Ġblock": 1033,
      "Ġtell": 1034,
      "Ġcake": 1035,
      "more": 1036,
      "Ġanymore": 1037,
      "leep": 1038,
      "ndma": 1039,
      "Ġcloser": 1040,
      "Ġcook": 1041,
      "Ġcurious": 1042,
      "itc": 1043,
      "Ġfav": 1044,
      "Ġbel": 1045,
      "ount": 1046,
      "Ġnight": 1047,
      "Ġpull": 1048,
      "Ġopen": 1049,
      "ired": 1050,
      "imes": 1051,
      "ĠTh": 1052,
      "Ġlea": 1053,
      "ached": 1054,
      "Ġpain": 1055,
      "iss": 1056,
      "Ġfirst": 1057,
      "Ġz": 1058,
      "Her": 1059,
      "Ġbutter": 1060,
      "Ġhere": 1061,
      "Ġfell": 1062,
      "Ġbus": 1063,
      "Ġkid": 1064,
      "ull": 1065,
      "Ġgrabbed": 1066,
      "Ġru": 1067,
      "Ġsees": 1068,
      "Jo": 1069,
      "Can": 1070,
      "unny": 1071,
      "Ġsweet": 1072,
      "orn": 1073,
      "Ġonly": 1074,
      "Ġflo": 1075,
      "itchen": 1076,
      "Ġkitchen": 1077,
      "Ġthree": 1078,
      "Ġsand": 1079,
      "Ġhelped": 1080,
      "Ġbirds": 1081,
      "Ġstop": 1082,
      "Ġdr": 1083,
      "Ġcont": 1084,
      "Ġcra": 1085,
      "Ġbit": 1086,
      "Ġba": 1087,
      "Ġhappened": 1088,
      "Ġjumped": 1089,
      "Ġglad": 1090,
      "Ġfire": 1091,
      "Ġmon": 1092,
      "ppy": 1093,
      "Ġsing": 1094,
      "Ġbeh": 1095,
      "Ġgrass": 1096,
      "Ġtri": 1097,
      "Ġper": 1098,
      "Ġcr": 1099,
      "Ġbrother": 1100,
      "Ġrealized": 1101,
      "ĠDo": 1102,
      "After": 1103,
      "isy": 1104,
      "Ġstory": 1105,
      "Ġshouted": 1106,
      "air": 1107,
      "Ġreached": 1108,
      "Ġmess": 1109,
      "Ġsoft": 1110,
      "akes": 1111,
      "ass": 1112,
      "ĠLet": 1113,
      "Ġyummy": 1114,
      "Ġlady": 1115,
      "Ġgame": 1116,
      "ins": 1117,
      "Ġhaving": 1118,
      "nts": 1119,
      "Ġdraw": 1120,
      "Ġate": 1121,
      "Ġhat": 1122,
      "Ġprin": 1123,
      "ĠSarah": 1124,
      "Ġpretend": 1125,
      "zy": 1126,
      "ĠEveryone": 1127,
      "Ġpap": 1128,
      "Ġthrough": 1129,
      "Ġfavor": 1130,
      "Ġunderst": 1131,
      "ĠJane": 1132,
      "'re": 1133,
      "where": 1134,
      "Ġcre": 1135,
      "Ġless": 1136,
      "Ġrest": 1137,
      "Ġfavorite": 1138,
      "Ġready": 1139,
      "ater": 1140,
      "ĠAs": 1141,
      "Ġthing": 1142,
      "Ġlooks": 1143,
      "ken": 1144,
      "Ġmaking": 1145,
      "ather": 1146,
      "ĠCan": 1147,
      "Ġkids": 1148,
      "Ġmagic": 1149,
      "Ġreally": 1150,
      "Ġduck": 1151,
      "Ġpare": 1152,
      "Ġtired": 1153,
      "Ġpond": 1154,
      "Ġfix": 1155,
      "Ġcars": 1156,
      "Ġcut": 1157,
      "Ġworld": 1158,
      "Wow": 1159,
      "Ġdone": 1160,
      "ĠThat": 1161,
      "Ġbegan": 1162,
      "Ġmum": 1163,
      "Ġbunny": 1164,
      "Mommy": 1165,
      "Ġwaved": 1166,
      "bo": 1167,
      "Ġhimself": 1168,
      "Ġcatch": 1169,
      "Ġbutterf": 1170,
      "Ġcoming": 1171,
      "Ġtouch": 1172,
      "Ġfunny": 1173,
      "Ġcried": 1174,
      "Ġused": 1175,
      "fully": 1176,
      "Ġworry": 1177,
      "Ġpart": 1178,
      "Ġwhy": 1179,
      "Ġprom": 1180,
      "uff": 1181,
      "Ġname": 1182,
      "ign": 1183,
      "Ġblocks": 1184,
      "Ġanother": 1185,
      "Ġfill": 1186,
      "ĠJoe": 1187,
      "Ġste": 1188,
      "Ġflower": 1189,
      "Ġpus": 1190,
      "Ġhold": 1191,
      "Ġfro": 1192,
      "Ġhair": 1193,
      "Ġtast": 1194,
      "Ġtop": 1195,
      "Ġseen": 1196,
      "Ġcool": 1197,
      "ster": 1198,
      "oney": 1199,
      "Ġswim": 1200,
      "rel": 1201,
      "Ġwished": 1202,
      "sh": 1203,
      "eddy": 1204,
      "iver": 1205,
      "Ġthank": 1206,
      "Ġmouse": 1207,
      "Ġfloor": 1208,
      "Ġlight": 1209,
      "Ġgreen": 1210,
      "Ġbag": 1211,
      "ient": 1212,
      "Ġdelic": 1213,
      "Ġlikes": 1214,
      "Ġgi": 1215,
      "Ġpaper": 1216,
      "Ġsmell": 1217,
      "Ġfarm": 1218,
      "hy": 1219,
      "Timmy": 1220,
      "Ġparents": 1221,
      "As": 1222,
      "Ġbehind": 1223,
      "ation": 1224,
      "olly": 1225,
      "Ġlesson": 1226,
      "Ġdri": 1227,
      "Don": 1228,
      "Ġsurprise": 1229,
      "Ġdoing": 1230,
      "Ġhopped": 1231,
      "Ġdro": 1232,
      "Ġbow": 1233,
      "Ġworked": 1234,
      "Ġsleep": 1235,
      "Ġhole": 1236,
      "ards": 1237,
      "ĠJohn": 1238,
      "Sam": 1239,
      "Ġwindow": 1240,
      "andy": 1241,
      "Ġyellow": 1242,
      "Ġread": 1243,
      "Ġtrees": 1244,
      "Ġdark": 1245,
      "Ġdin": 1246,
      "Ġfull": 1247,
      "Ġsho": 1248,
      "Ġlaugh": 1249,
      "Ġrunning": 1250,
      "aisy": 1251,
      "ued": 1252,
      "ike": 1253,
      "ely": 1254,
      "Ġcold": 1255,
      "ren": 1256,
      "Ġswing": 1257,
      "rew": 1258,
      "Ġsat": 1259,
      "Ġspot": 1260,
      "Ġwood": 1261,
      "ul": 1262,
      "\".": 1263,
      "Ġsurprised": 1264,
      "Ġslow": 1265,
      "Ġremembered": 1266,
      "aring": 1267,
      "Ġbutterfly": 1268,
      "Ġhappily": 1269,
      "Ġset": 1270,
      "Ġlost": 1271,
      "Ġ-": 1272,
      "Ġneeded": 1273,
      "ons": 1274,
      "Ġyears": 1275,
      "Ġice": 1276,
      "ĠIn": 1277,
      "Ġheld": 1278,
      "Ġbuy": 1279,
      "Hell": 1280,
      "Hello": 1281,
      "Ġmove": 1282,
      "Ġfrog": 1283,
      "Ġanything": 1284,
      "Ġwrong": 1285,
      "Ġcarefully": 1286,
      "uit": 1287,
      "Ġsnow": 1288,
      "John": 1289,
      "Ġhear": 1290,
      "Ġleft": 1291,
      "Ġtall": 1292,
      "Ġhun": 1293,
      "ens": 1294,
      "Ġperf": 1295,
      "Ġdir": 1296,
      "Ġdream": 1297,
      "Ġfair": 1298,
      "Ġfollowed": 1299,
      "Ġair": 1300,
      "Ġenjoyed": 1301,
      "ĠLila": 1302,
      "Ġel": 1303,
      "Ġfinished": 1304,
      "Ġcast": 1305,
      "Ġchildren": 1306,
      "cess": 1307,
      "Ġbug": 1308,
      "Ġbooks": 1309,
      "Ġhot": 1310,
      "Ġtable": 1311,
      "inally": 1312,
      "ined": 1313,
      "Ġherself": 1314,
      "Ġhill": 1315,
      "Ġhid": 1316,
      "reed": 1317,
      "ĠAfter": 1318,
      "Ġarri": 1319,
      "Ġfriendly": 1320,
      "Ġunderstand": 1321,
      "ds": 1322,
      "Ġarm": 1323,
      "Ġcontin": 1324,
      "Ġclose": 1325,
      "Ġplease": 1326,
      "Ġforgot": 1327,
      "ross": 1328,
      "Ġmight": 1329,
      "Ġcolors": 1330,
      "Ġelse": 1331,
      "ĠBenny": 1332,
      "Ġdelicious": 1333,
      "Ġbroken": 1334,
      "Ġbuild": 1335,
      "Ġwants": 1336,
      "asure": 1337,
      "Ġrel": 1338,
      "lf": 1339,
      "ash": 1340,
      "Ġgone": 1341,
      "sp": 1342,
      "Ġgent": 1343,
      "ield": 1344,
      "OK": 1345,
      "Ġbaby": 1346,
      "room": 1347,
      "atter": 1348,
      "Ġarrived": 1349,
      "Ġcreat": 1350,
      "Ġtight": 1351,
      "Ġable": 1352,
      "ĠNow": 1353,
      "Ġleaves": 1354,
      "Ġsong": 1355,
      "Ġwonderful": 1356,
      "Ġsomeone": 1357,
      "Then": 1358,
      "Ġyes": 1359,
      "Ġwall": 1360,
      "Ġsquir": 1361,
      "ner": 1362,
      "ĠSally": 1363,
      "Ġfilled": 1364,
      "av": 1365,
      "Ġcontinued": 1366,
      "ich": 1367,
      "ĠThere": 1368,
      "ask": 1369,
      "Ġlion": 1370,
      "Ġcount": 1371,
      "Ġbreak": 1372,
      "Ġsquirrel": 1373,
      "Ġagreed": 1374,
      "Ġju": 1375,
      "Ġpink": 1376,
      "ĠMaybe": 1377,
      "Ġscary": 1378,
      "Ġpoin": 1379,
      "Ġfall": 1380,
      "Ġenough": 1381,
      "From": 1382,
      "ĠDaisy": 1383,
      "ey": 1384,
      "Ġcastle": 1385,
      "icy": 1386,
      "ries": 1387,
      "ee": 1388,
      "man": 1389,
      "Ġgrandma": 1390,
      "ĠEm": 1391,
      "Ġvis": 1392,
      "Ġstayed": 1393,
      "Ġhungry": 1394,
      "Ġmakes": 1395,
      "Jack": 1396,
      "Ġmoment": 1397,
      "Ġmorning": 1398,
      "Ġsmiles": 1399,
      "'ll": 1400,
      "Ġfinally": 1401,
      "Ġwet": 1402,
      "Ġfight": 1403,
      "Ġcomp": 1404,
      "Ġcookies": 1405,
      "Ġgetting": 1406,
      "oup": 1407,
      "Ġturned": 1408,
      "Ġsometimes": 1409,
      "gon": 1410,
      "app": 1411,
      "row": 1412,
      "Ġpictures": 1413,
      "Ġpi": 1414,
      "Ġtalk": 1415,
      "Ġbeach": 1416,
      "rot": 1417,
      "Ġcream": 1418,
      "ama": 1419,
      "ĠTommy": 1420,
      "Ġclimbed": 1421,
      "ĠThis": 1422,
      "Ġothers": 1423,
      "Ġtrying": 1424,
      "Ġclot": 1425,
      "Ġballoon": 1426,
      "ĠK": 1427,
      "Ġlistened": 1428,
      "oom": 1429,
      "Ġdinner": 1430,
      "Ġamazing": 1431,
      "Ġtail": 1432,
      "Ġclothes": 1433,
      "ced": 1434,
      "Ġmus": 1435,
      "ĠWhat": 1436,
      "Ġfew": 1437,
      "ance": 1438,
      "apped": 1439,
      "Ġmar": 1440,
      "This": 1441,
      "Ġmet": 1442,
      "Ġpuppy": 1443,
      "lc": 1444,
      "At": 1445,
      "Ġmother": 1446,
      "ence": 1447,
      "Ġdaddy": 1448,
      "Ġperfect": 1449,
      "oring": 1450,
      "amp": 1451,
      "Ġasks": 1452,
      "Ġspl": 1453,
      "ĠBilly": 1454,
      "ĠGra": 1455,
      "Ġwhite": 1456,
      "ĠJen": 1457,
      "key": 1458,
      "red": 1459,
      "Ġfur": 1460,
      "Ġalone": 1461,
      "ctor": 1462,
      "uffy": 1463,
      "Ġpet": 1464,
      "His": 1465,
      "Ġsail": 1466,
      "Ġwasn": 1467,
      "ucky": 1468,
      "Ġsit": 1469,
      "Ġbrought": 1470,
      "Ġeverything": 1471,
      "Ġsear": 1472,
      "ister": 1473,
      "Ġpol": 1474,
      "der": 1475,
      "Ġjoy": 1476,
      "Oh": 1477,
      "Ġgrow": 1478,
      "ott": 1479,
      "Ġroll": 1480,
      "Ġstrange": 1481,
      "Ġpulled": 1482,
      "ated": 1483,
      "Ġwaited": 1484,
      "Ġpie": 1485,
      "wl": 1486,
      "Ġspark": 1487,
      "Ġdeep": 1488,
      "Ġride": 1489,
      "ĠTo": 1490,
      "Ġdanger": 1491,
      "Ġwoods": 1492,
      "Ġplan": 1493,
      "Ġwon": 1494,
      "Ġruns": 1495,
      "Ġleave": 1496,
      "Ġmusic": 1497,
      "me": 1498,
      "Ġthinks": 1499,
      "Ġamazed": 1500,
      "Ġvisit": 1501,
      "zz": 1502,
      "ower": 1503,
      "Ġhide": 1504,
      "ang": 1505,
      "Ġteddy": 1506,
      "Ġcloud": 1507,
      "eter": 1508,
      "Maybe": 1509,
      "Ġfox": 1510,
      "Ġpat": 1511,
      "os": 1512,
      "ever": 1513,
      "Ġpen": 1514,
      "Ġsilly": 1515,
      "ugg": 1516,
      "Ġliving": 1517,
      "Ġflying": 1518,
      "Max": 1519,
      "ope": 1520,
      "Ġshap": 1521,
      "Ġem": 1522,
      "Ġtowards": 1523,
      "gs": 1524,
      "Ġtreat": 1525,
      "Ġowner": 1526,
      "med": 1527,
      "ames": 1528,
      "ises": 1529,
      "Ġpa": 1530,
      "thy": 1531,
      "Ġpre": 1532,
      "Ġgu": 1533,
      "Ġside": 1534,
      "Okay": 1535,
      "Ġland": 1536,
      "Ġgrate": 1537,
      "Ġfield": 1538,
      "Ġlake": 1539,
      "Ġshared": 1540,
      "ained": 1541,
      "Ġqui": 1542,
      "Ġmoney": 1543,
      "Ġpaint": 1544,
      "cket": 1545,
      "igg": 1546,
      "Ġfaster": 1547,
      "Ġparty": 1548,
      "Ġpromised": 1549,
      "Ġgrateful": 1550,
      "ĠAmy": 1551,
      "Ġsister": 1552,
      "Ġbelie": 1553,
      "Ġdance": 1554,
      "Ġbott": 1555,
      "Ġrace": 1556,
      "avy": 1557,
      "Ġmoral": 1558,
      "ix": 1559,
      "eces": 1560,
      "Ġcup": 1561,
      "cle": 1562,
      "Ġtreasure": 1563,
      "Ġbroke": 1564,
      "up": 1565,
      "Ġpieces": 1566,
      "Ġcandy": 1567,
      "Ġjob": 1568,
      "Ġquiet": 1569,
      "Ġworried": 1570,
      "unch": 1571,
      "Ġblank": 1572,
      "Ġcolorful": 1573,
      "sw": 1574,
      "Ġtrain": 1575,
      "ze": 1576,
      "Ġbigger": 1577,
      "Ġbran": 1578,
      "Ġansw": 1579,
      "Ġslowly": 1580,
      "orm": 1581,
      "Ġwear": 1582,
      "outh": 1583,
      "Ġgif": 1584,
      "Ġdolls": 1585,
      "Ġwelc": 1586,
      "ually": 1587,
      "Ġblanket": 1588,
      "Ġreach": 1589,
      "Ġmouth": 1590,
      "ling": 1591,
      "Ġmust": 1592,
      "Ġve": 1593,
      "Ġsnack": 1594,
      "ol": 1595,
      "Ġsuch": 1596,
      "Ġcho": 1597,
      "fort": 1598,
      "Ġbike": 1599,
      "Ġeverywhere": 1600,
      "Ġele": 1601,
      "Ġsmart": 1602,
      "Ġscream": 1603,
      "ased": 1604,
      "Ġpro": 1605,
      "Ġblack": 1606,
      "less": 1607,
      "ph": 1608,
      "Ġriver": 1609,
      "ĠAll": 1610,
      "ire": 1611,
      "Ġnap": 1612,
      "Ġplant": 1613,
      "Ġbar": 1614,
      "Ġjoin": 1615,
      "ĠJim": 1616,
      "Ġmagical": 1617,
      "Sure": 1618,
      "Ġje": 1619,
      "Ġpot": 1620,
      "Ġsign": 1621,
      "Ġprincess": 1622,
      "Ġdangerous": 1623,
      "Ġhelping": 1624,
      "Ġwin": 1625,
      "cked": 1626,
      "Ġthrew": 1627,
      "set": 1628,
      "Ġdirty": 1629,
      "ming": 1630,
      "Ġcarrot": 1631,
      "Ġtwins": 1632,
      "Ġbowl": 1633,
      "Ġdragon": 1634,
      "Ġcrying": 1635,
      "Ġtower": 1636,
      "ipped": 1637,
      "Ġbite": 1638,
      "Ġhoped": 1639,
      "Ġdoctor": 1640,
      "ored": 1641,
      "Ġmost": 1642,
      "Ġteac": 1643,
      "ĠFl": 1644,
      "Ġspr": 1645,
      "ident": 1646,
      "Ġsame": 1647,
      "Ġfarmer": 1648,
      "Ġheavy": 1649,
      "Ġbee": 1650,
      "Ġwords": 1651,
      "Ġmonster": 1652,
      "Ġacc": 1653,
      "Ġmonkey": 1654,
      "bble": 1655,
      "ear": 1656,
      "ere": 1657,
      "de": 1658,
      "Ġheal": 1659,
      "Ġacross": 1660,
      "Ġcoll": 1661,
      "Ġbath": 1662,
      "Why": 1663,
      "Ġdisapp": 1664,
      "Hi": 1665,
      "Ġbuck": 1666,
      "Ġhig": 1667,
      "Ġfruit": 1668,
      "Ġstepped": 1669,
      "ĠDaddy": 1670,
      "Ġstre": 1671,
      "Ġclosed": 1672,
      "Ġstuck": 1673,
      "eared": 1674,
      "Mia": 1675,
      "ĠJill": 1676,
      "Ġheart": 1677,
      "Ġtown": 1678,
      "Ġfeels": 1679,
      "chool": 1680,
      "Ġbelieve": 1681,
      "Ġwouldn": 1682,
      "ĠMr": 1683,
      "asket": 1684,
      "Ġbasket": 1685,
      "Ġmix": 1686,
      "Ġteacher": 1687,
      "Ġcray": 1688,
      "Ġcour": 1689,
      "Ġbutt": 1690,
      "Ġatt": 1691,
      "Ġeating": 1692,
      "Ġhit": 1693,
      "Ġschool": 1694,
      "iting": 1695,
      "Ġchair": 1696,
      "ĠMolly": 1697,
      "Ġpushed": 1698,
      "Ġbrown": 1699,
      "Ġyard": 1700,
      "Ġgentle": 1701,
      "Ġpack": 1702,
      "Ġmin": 1703,
      "Ġcourse": 1704,
      "Ġneigh": 1705,
      "Ġwithout": 1706,
      "br": 1707,
      "Ġclapped": 1708,
      "issed": 1709,
      "ord": 1710,
      "ts": 1711,
      "umb": 1712,
      "Ġhigher": 1713,
      "Ġpers": 1714,
      "pping": 1715,
      "Ġsmo": 1716,
      "Ġsec": 1717,
      "Ġneighb": 1718,
      "Ġswings": 1719,
      "Ġaccident": 1720,
      "Ġfairy": 1721,
      "Lila": 1722,
      "ier": 1723,
      "vel": 1724,
      "Ġtoday": 1725,
      "orrow": 1726,
      "Ġgames": 1727,
      "Ġwelcome": 1728,
      "Ġdry": 1729,
      "Ġstand": 1730,
      "Ġnoises": 1731,
      "ors": 1732,
      "Ġdrove": 1733,
      "Ġpocket": 1734,
      "Ġthrow": 1735,
      "Ġsuddenly": 1736,
      "ventually": 1737,
      "Ġforget": 1738,
      "Ġlon": 1739,
      "Ġturns": 1740,
      "Ġhugs": 1741,
      "Ġpiece": 1742,
      "Ġcheered": 1743,
      "ract": 1744,
      "Ġfree": 1745,
      "Ġben": 1746,
      "Ġlonely": 1747,
      "Ġfence": 1748,
      "Ġhappen": 1749,
      "Ġwings": 1750,
      "cy": 1751,
      "ho": 1752,
      "ourn": 1753,
      "Ġneck": 1754,
      "Ġjourn": 1755,
      "Ġlonger": 1756,
      "Ġsang": 1757,
      "ible": 1758,
      "Ġexplained": 1759,
      "ead": 1760,
      "Ġsea": 1761,
      "Ġalong": 1762,
      "Ġsoup": 1763,
      "Ġcorn": 1764,
      "Finally": 1765,
      "Ġstories": 1766,
      "Ġlate": 1767,
      "Ġupset": 1768,
      "Ġwell": 1769,
      "itting": 1770,
      "Ġshoes": 1771,
      "Ġinst": 1772,
      "Ġsecret": 1773,
      "Ġadventures": 1774,
      "Ġmiss": 1775,
      "Ġmat": 1776,
      "Ġstars": 1777,
      "Ġtrou": 1778,
      "Ġcaught": 1779,
      "phant": 1780,
      "Ġwhe": 1781,
      "ches": 1782,
      "Ġsinging": 1783,
      "Ġph": 1784,
      "Ġrocks": 1785,
      "oun": 1786,
      "Ġbucket": 1787,
      "Ġlunch": 1788,
      "ape": 1789,
      "ces": 1790,
      "Ġswam": 1791,
      "Ġdropped": 1792,
      "Ġdist": 1793,
      "Ġwish": 1794,
      "Ġyoung": 1795,
      "Ġshook": 1796,
      "ocked": 1797,
      "Ġdrink": 1798,
      "Ġelephant": 1799,
      "Ġbring": 1800,
      "Ġmoved": 1801,
      "yard": 1802,
      "ment": 1803,
      "Ġplac": 1804,
      "Ġbelong": 1805,
      "Ġjuice": 1806,
      "Ġnaught": 1807,
      "ountain": 1808,
      "Ġstar": 1809,
      "Ġnaughty": 1810,
      "Ġbackyard": 1811,
      "ek": 1812,
      "llo": 1813,
      "ĠGrandma": 1814,
      "Ġmine": 1815,
      "fused": 1816,
      "Ġjar": 1817,
      "Ġstreet": 1818,
      "bow": 1819,
      "Ġtom": 1820,
      "Ġpast": 1821,
      "Ġkey": 1822,
      "ĠThank": 1823,
      "Ġtakes": 1824,
      "Ġtaking": 1825,
      "ĠMary": 1826,
      "Ġapple": 1827,
      "Do": 1828,
      "Ġshapes": 1829,
      "Ġpurp": 1830,
      "Ġorange": 1831,
      "Ġexploring": 1832,
      "ward": 1833,
      "Ġshop": 1834,
      "Ġowl": 1835,
      "Ġcou": 1836,
      "ush": 1837,
      "ub": 1838,
      "Ġnothing": 1839,
      "Ġexp": 1840,
      "Ġnearby": 1841,
      "Ġpig": 1842,
      "ĠEmma": 1843,
      "bby": 1844,
      "Ġwise": 1845,
      "Ġnose": 1846,
      "Ġwondered": 1847,
      "Ġresp": 1848,
      "Ġwoke": 1849,
      "ĠFluffy": 1850,
      "ung": 1851,
      "Ġcomes": 1852,
      "Ġes": 1853,
      "Ġseemed": 1854,
      "Ġcow": 1855,
      "col": 1856,
      "Ġbusy": 1857,
      "Ġaf": 1858,
      "Ġdes": 1859,
      "Ġsounds": 1860,
      "Ġmail": 1861,
      "Ġbench": 1862,
      "Ġtiny": 1863,
      "Ġrelie": 1864,
      "Ġsick": 1865,
      "Ġinv": 1866,
      "Ġstu": 1867,
      "Ġpurple": 1868,
      "Ġmark": 1869,
      "cing": 1870,
      "Ġrainbow": 1871,
      "aughter": 1872,
      "Ġarms": 1873,
      "Ġca": 1874,
      "Ġthough": 1875,
      "adow": 1876,
      "Ġmad": 1877,
      "Ġnest": 1878,
      "ions": 1879,
      "fish": 1880,
      "ose": 1881,
      "ining": 1882,
      "Ġmil": 1883,
      "Ġyear": 1884,
      "sy": 1885,
      "pper": 1886,
      "thday": 1887,
      "ese": 1888,
      "Ġ3": 1889,
      "Ġsitting": 1890,
      "cks": 1891,
      "Ġob": 1892,
      "Ġdriver": 1893,
      "Ġholding": 1894,
      "And": 1895,
      "Ġround": 1896,
      "Ġking": 1897,
      "Ġcarry": 1898,
      "raid": 1899,
      "read": 1900,
      "Ġafraid": 1901,
      "ity": 1902,
      "Ġbranch": 1903,
      "ittens": 1904,
      "Ġforever": 1905,
      "ĠInside": 1906,
      "Ġcir": 1907,
      "Ġwhist": 1908,
      "Ġhello": 1909,
      "Ġgift": 1910,
      "ĠO": 1911,
      "Ġkite": 1912,
      "weet": 1913,
      "Ġspoon": 1914,
      "board": 1915,
      "Ġboun": 1916,
      "vered": 1917,
      "Ġcute": 1918,
      "Ġdaughter": 1919,
      "Ġpeace": 1920,
      "Ġshell": 1921,
      "Ġlift": 1922,
      "idge": 1923,
      "to": 1924,
      "Ġfit": 1925,
      "Ġcoat": 1926,
      "Ġswimming": 1927,
      "Ġhuge": 1928,
      "uched": 1929,
      "Ġtouched": 1930,
      "ĠCome": 1931,
      "Ġbread": 1932,
      "Ġpatient": 1933,
      "Of": 1934,
      "ours": 1935,
      "let": 1936,
      "Ġletter": 1937,
      "Ġbirthday": 1938,
      "Ġpromise": 1939,
      "Ġgrab": 1940,
      "Ġrelieved": 1941,
      "ĠFinally": 1942,
      "cer": 1943,
      "sting": 1944,
      "Ġgives": 1945,
      "Ġaccidentally": 1946,
      "Ġwra": 1947,
      "eth": 1948,
      "Ġputs": 1949,
      "Ġband": 1950,
      "Ġhope": 1951,
      "Ġmilk": 1952,
      "gg": 1953,
      "Ġbottle": 1954,
      "Ġcreature": 1955,
      "Hey": 1956,
      "Ġfing": 1957,
      "shine": 1958,
      "Ġdays": 1959,
      "Ġcheese": 1960,
      "Ġintere": 1961,
      "Ġlife": 1962,
      "Ġlaughing": 1963,
      "Ġgigg": 1964,
      "Ġcozy": 1965,
      "Ġcollect": 1966,
      "alm": 1967,
      "Ġlucky": 1968,
      "Ġonto": 1969,
      "Ġexciting": 1970,
      "Ġkick": 1971,
      "ĠSammy": 1972,
      "Ġret": 1973,
      "Ġmist": 1974,
      "Ġpower": 1975,
      "Ġspin": 1976,
      "Ġcave": 1977,
      "Ġcomfort": 1978,
      "Ġdisco": 1979,
      "Ġjourney": 1980,
      "Ġact": 1981,
      "Ġsunshine": 1982,
      "og": 1983,
      "Ġsunny": 1984,
      "gged": 1985,
      "Ġfan": 1986,
      "Ġear": 1987,
      "Ġbush": 1988,
      "Later": 1989,
      "Ġinstead": 1990,
      "Ġreturn": 1991,
      "ped": 1992,
      "ten": 1993,
      "arp": 1994,
      "Ġpudd": 1995,
      "Ġpointed": 1996,
      "Ġinc": 1997,
      "ness": 1998,
      "Ġsmiling": 1999,
      "Ġimag": 2000,
      "Ġeas": 2001,
      "ize": 2002,
      "ĠMama": 2003,
      "Ġsearched": 2004,
      "els": 2005,
      "Ġhoney": 2006,
      "itch": 2007,
      "Ġsharp": 2008,
      "Ġroad": 2009,
      "Ġanyone": 2010,
      "Ġhor": 2011,
      "ĠSoon": 2012,
      "Ġtalked": 2013,
      "Ġspo": 2014,
      "Ġbought": 2015,
      "oman": 2016,
      "ball": 2017,
      "Ġlater": 2018,
      "Ġsuc": 2019,
      "Ġwoman": 2020,
      "Ġsandw": 2021,
      "Ġplane": 2022,
      "Ġgather": 2023,
      "blem": 2024,
      "Tommy": 2025,
      "Ġproblem": 2026,
      "Ġsnowman": 2027,
      "Ġperson": 2028,
      "mer": 2029,
      "Ġwatching": 2030,
      "unt": 2031,
      "Ġcrayons": 2032,
      "Ġsmelled": 2033,
      "Ġhealthy": 2034,
      "Ġrope": 2035,
      "Ġtasty": 2036,
      "irt": 2037,
      "Ġtrouble": 2038,
      "Good": 2039,
      "Ġmeet": 2040,
      "Ġce": 2041,
      "Ġsu": 2042,
      "Ġducks": 2043,
      "round": 2044,
      "Ġpop": 2045,
      "Ġloves": 2046,
      "Ġkiss": 2047,
      "Bob": 2048,
      "itten": 2049,
      "Ġpile": 2050,
      "een": 2051,
      "Ġclouds": 2052,
      "Ġent": 2053,
      "Ġapples": 2054,
      "Ġshining": 2055,
      "Ġpar": 2056,
      "ove": 2057,
      "Ġstorm": 2058,
      "Ġspid": 2059,
      "Ġbutton": 2060,
      "Ġinteresting": 2061,
      "Ġmach": 2062,
      "Ġzoom": 2063,
      "amed": 2064,
      "Ġorgan": 2065,
      "Ġcard": 2066,
      "Ġadm": 2067,
      "Ġzoo": 2068,
      "ĠTweet": 2069,
      "Ġpres": 2070,
      "Ġwide": 2071,
      "Ġclever": 2072,
      "Ġres": 2073,
      "ont": 2074,
      "Ġfeather": 2075,
      "Ġmatter": 2076,
      "owed": 2077,
      "Ġpill": 2078,
      "ale": 2079,
      "eb": 2080,
      "ĠSomet": 2081,
      "ndp": 2082,
      "Ġbark": 2083,
      "Ġhon": 2084,
      "Ġpract": 2085,
      "ĠWith": 2086,
      "Ġprot": 2087,
      "aur": 2088,
      "lla": 2089,
      "Ġap": 2090,
      "Ġrespect": 2091,
      "Ġeag": 2092,
      "Ġfront": 2093,
      "Ġscreamed": 2094,
      "epend": 2095,
      "Ġgoes": 2096,
      "ail": 2097,
      "Ġmud": 2098,
      "Ġseat": 2099,
      "Ġprotect": 2100,
      "Ġneighbor": 2101,
      "Ġsaf": 2102,
      "Ġshr": 2103,
      "Ġquest": 2104,
      "ex": 2105,
      "Ġdanced": 2106,
      "Ġhorse": 2107,
      "isa": 2108,
      "Ġsur": 2109,
      "Ġtrip": 2110,
      "Ġanswer": 2111,
      "Ġpuzz": 2112,
      "Ġasleep": 2113,
      "Lucy": 2114,
      "Ġvill": 2115,
      "Ġpresent": 2116,
      "Ġmyster": 2117,
      "Ġspotted": 2118,
      "Ġtries": 2119,
      "Ġappeared": 2120,
      "St": 2121,
      "Ġsnake": 2122,
      "erly": 2123,
      "Come": 2124,
      "Ġteach": 2125,
      "Ġwhole": 2126,
      "Ġpath": 2127,
      "Ġgiant": 2128,
      "Ġwild": 2129,
      "Ġlovely": 2130,
      "Ġcheer": 2131,
      "ching": 2132,
      "Ġphone": 2133,
      "Ġslid": 2134,
      "Ġplaces": 2135,
      "Ġwhich": 2136,
      "ÅĵI": 2137,
      "Ġdi": 2138,
      "Ġwearing": 2139,
      "Ġteeth": 2140,
      "Ġdirt": 2141,
      "Ġforgive": 2142,
      "Ġrolled": 2143,
      "oose": 2144,
      "Ġconfused": 2145,
      "izz": 2146,
      "ĠGo": 2147,
      "ular": 2148,
      "Just": 2149,
      "Ġtasted": 2150,
      "Ġminut": 2151,
      "ones": 2152,
      "Ġgently": 2153,
      "Ġimpress": 2154,
      "Ġval": 2155,
      "Ġcouch": 2156,
      "Ġtun": 2157,
      "Ġfaces": 2158,
      "Ġthin": 2159,
      "Every": 2160,
      "Ġrude": 2161,
      "ĠMittens": 2162,
      "ert": 2163,
      "ĠHow": 2164,
      "ssed": 2165,
      "Ġpass": 2166,
      "Ġcalm": 2167,
      "Ġlive": 2168,
      "itty": 2169,
      "Ġmind": 2170,
      "ndpa": 2171,
      "Ġspent": 2172,
      "Ġsplas": 2173,
      "ĠJimmy": 2174,
      "Ġpretended": 2175,
      "Jim": 2176,
      "Ġmed": 2177,
      "Ġpan": 2178,
      "cean": 2179,
      "Ġocean": 2180,
      "Ġash": 2181,
      "Ġfeet": 2182,
      "In": 2183,
      "Ġsupp": 2184,
      "Ġsal": 2185,
      "Ġlad": 2186,
      "nic": 2187,
      "la": 2188,
      "Ġser": 2189,
      "Ġpour": 2190,
      "Ġpicnic": 2191,
      "Ġcoin": 2192,
      "Ġmachine": 2193,
      "Ġlay": 2194,
      "unk": 2195,
      "Molly": 2196,
      "Ġsack": 2197,
      "Ġcorner": 2198,
      "Ġring": 2199,
      "Ġwrite": 2200,
      "Ġdrive": 2201,
      "Ġworm": 2202,
      "Ġbugs": 2203,
      "Ġspider": 2204,
      "Ġoven": 2205,
      "Ġwave": 2206,
      "Ġchocol": 2207,
      "Ġemb": 2208,
      "Mum": 2209,
      "Ġpush": 2210,
      "Ġbuilding": 2211,
      "hile": 2212,
      "Ġsmooth": 2213,
      "Ġlast": 2214,
      "Ġign": 2215,
      "Ġtomorrow": 2216,
      "Ġcookie": 2217,
      "Ġhelpful": 2218,
      "umber": 2219,
      "arge": 2220,
      "Ġcann": 2221,
      "Ġcart": 2222,
      "Ġhiding": 2223,
      "Ġrec": 2224,
      "als": 2225,
      "Ġwip": 2226,
      "Ġfurry": 2227,
      "Ġladder": 2228,
      "Ġremind": 2229,
      "Ġcannot": 2230,
      "Ġmountain": 2231,
      "lex": 2232,
      "ator": 2233,
      "Ġtid": 2234,
      "Ġblew": 2235,
      "ĠEmily": 2236,
      "Ġbell": 2237,
      "Ġban": 2238,
      "ato": 2239,
      "Ġbubble": 2240,
      "Ġchick": 2241,
      "Ġpaw": 2242,
      "Ġspread": 2243,
      "Ġtalking": 2244,
      "ife": 2245,
      "Ġfighting": 2246,
      "Ġfold": 2247,
      "Ġfinish": 2248,
      "Ġtool": 2249,
      "ĠSometimes": 2250,
      "Ġdelight": 2251,
      "Ġembar": 2252,
      "Ġleaf": 2253,
      "Ġembarra": 2254,
      "Soon": 2255,
      "Ġsel": 2256,
      "Ġwore": 2257,
      "Ġpool": 2258,
      "Ġrob": 2259,
      "Ġfoot": 2260,
      "Ġpuddle": 2261,
      "Ġsongs": 2262,
      "Ġshy": 2263,
      "Ġknee": 2264,
      "ĠCh": 2265,
      "ighed": 2266,
      "Ġspray": 2267,
      "Ġeventually": 2268,
      "Ġrep": 2269,
      "Ġneckl": 2270,
      "Ġwaiting": 2271,
      "Ġmaybe": 2272,
      "Ġchocolate": 2273,
      "mo": 2274,
      "Ġnet": 2275,
      "Ġchased": 2276,
      "Ġbat": 2277,
      "Ġwhenever": 2278,
      "Ġfixed": 2279,
      "oph": 2280,
      "Ġstret": 2281,
      "ĠJust": 2282,
      "ĠJenny": 2283,
      "Ġbarked": 2284,
      "Ġlarge": 2285,
      "ult": 2286,
      "Ġselfish": 2287,
      "Ġstring": 2288,
      "Ġcoo": 2289,
      "Ġsol": 2290,
      "ĠPlease": 2291,
      "lebr": 2292,
      "ĠEverywhere": 2293,
      "Ġwash": 2294,
      "Ġpeaceful": 2295,
      "Ġwhistle": 2296,
      "Ġcelebr": 2297,
      "ĠSt": 2298,
      "Ġstir": 2299,
      "Ġcarrots": 2300,
      "Ġant": 2301,
      "Ġcross": 2302,
      "urse": 2303,
      "Ġspe": 2304,
      "Ġcreative": 2305,
      "Ġplate": 2306,
      "Ġtaste": 2307,
      "Ġhum": 2308,
      "Ġbanan": 2309,
      "Ġgen": 2310,
      "Ġrobot": 2311,
      "Ġtidy": 2312,
      "ĠLe": 2313,
      "My": 2314,
      "Ġmoon": 2315,
      "Ġknocked": 2316,
      "iger": 2317,
      "Ġtrust": 2318,
      "Ġcrab": 2319,
      "orry": 2320,
      "Ġhears": 2321,
      "Ġtells": 2322,
      "box": 2323,
      "Ġcloth": 2324,
      "Ġvillage": 2325,
      "Ġmissed": 2326,
      "Ġstone": 2327,
      "ungle": 2328,
      "Ġstra": 2329,
      "Ġcolour": 2330,
      "Ġembarrassed": 2331,
      "airs": 2332,
      "Ġjungle": 2333,
      "Ġstep": 2334,
      "Ġrocket": 2335,
      "Ġdecor": 2336,
      "ĠTheir": 2337,
      "ĠJake": 2338,
      "ĠSome": 2339,
      "Please": 2340,
      "Ġspicy": 2341,
      "Ġnecklace": 2342,
      "elly": 2343,
      "old": 2344,
      "Dad": 2345,
      "Ġtreats": 2346,
      "Ġshelf": 2347,
      "Ġscar": 2348,
      "getable": 2349,
      "Ġhel": 2350,
      "umpy": 2351,
      "arm": 2352,
      "Ġshirt": 2353,
      "Ġvegetable": 2354,
      "Ġforward": 2355,
      "Ġsplash": 2356,
      "dge": 2357,
      "Ġtea": 2358,
      "llie": 2359,
      "Ġsticks": 2360,
      "Ġlegs": 2361,
      "Ġemp": 2362,
      "Now": 2363,
      "Ġempty": 2364,
      "inted": 2365,
      "Ġsave": 2366,
      "hnn": 2367,
      "Ġjumping": 2368,
      "Ġnut": 2369,
      "Ġple": 2370,
      "ĠAl": 2371,
      "Ġgray": 2372,
      "Ġwhis": 2373,
      "Ġsharing": 2374,
      "Ġ'": 2375,
      "Ġgrew": 2376,
      "Ġber": 2377,
      "Ġsheep": 2378,
      "aking": 2379,
      "Ġtightly": 2380,
      "ĠAnn": 2381,
      "Ġlanded": 2382,
      "Mama": 2383,
      "most": 2384,
      "Ġgener": 2385,
      "Ġmeant": 2386,
      "Ġdeter": 2387,
      "Ġashamed": 2388,
      "Ġbal": 2389,
      "Ġnods": 2390,
      "Ġdisappo": 2391,
      "Ġpillow": 2392,
      "ĠLisa": 2393,
      "Ġdeterm": 2394,
      "Ġalmost": 2395,
      "ird": 2396,
      "ĠTV": 2397,
      "ying": 2398,
      "Ġhonest": 2399,
      "hnny": 2400,
      "Ġpizz": 2401,
      "ian": 2402,
      "Ġsour": 2403,
      "Ġgold": 2404,
      "ĠWhy": 2405,
      "ĠDon": 2406,
      "Ġjew": 2407,
      "Be": 2408,
      "dle": 2409,
      "Ġbreath": 2410,
      "Ġcarried": 2411,
      "Ġmeadow": 2412,
      "Ġunderstood": 2413,
      "ano": 2414,
      "ĠOn": 2415,
      "Ġyelled": 2416,
      "Ġstood": 2417,
      "Ġthese": 2418,
      "Ġvan": 2419,
      "erp": 2420,
      "Ġpolice": 2421,
      "Ġdrew": 2422,
      "den": 2423,
      "ground": 2424,
      "Ġseed": 2425,
      "Stop": 2426,
      "Ġpay": 2427,
      "Ġkitten": 2428,
      "Ġwhisp": 2429,
      "Ġsnacks": 2430,
      "Ġprince": 2431,
      "To": 2432,
      "ned": 2433,
      "Ġsuccess": 2434,
      "Ġfear": 2435,
      "Ġbored": 2436,
      "Ġsparkly": 2437,
      "gly": 2438,
      "Ġav": 2439,
      "Ġlem": 2440,
      "ital": 2441,
      "aul": 2442,
      "Ġgun": 2443,
      "Ġugly": 2444,
      "ony": 2445,
      "Ġgas": 2446,
      "Ġshore": 2447,
      "Ġvase": 2448,
      "Ġdisappointed": 2449,
      "Ġhosp": 2450,
      "hin": 2451,
      "Ġline": 2452,
      "ork": 2453,
      "ustr": 2454,
      "kin": 2455,
      "Ġhours": 2456,
      "ĠTeddy": 2457,
      "Ġhospital": 2458,
      "Ġgroup": 2459,
      "ĠRex": 2460,
      "Ġclass": 2461,
      "Ġpizza": 2462,
      "itter": 2463,
      "vous": 2464,
      "Ġseek": 2465,
      "Ġplants": 2466,
      "iff": 2467,
      "Ġblow": 2468,
      "Ġknowing": 2469,
      "Ġhidden": 2470,
      "Ġgenerous": 2471,
      "Ġreturned": 2472,
      "Ġcries": 2473,
      "oop": 2474,
      "Ġtent": 2475,
      "ĠZ": 2476,
      "Ġpuzzle": 2477,
      "ĠEven": 2478,
      "Sarah": 2479,
      "Ġpri": 2480,
      "Ġmessy": 2481,
      "Ġeasy": 2482,
      "Ġfeed": 2483,
      "Ġpoor": 2484,
      "Ġglass": 2485,
      "Ġfrustr": 2486,
      "Ġstanding": 2487,
      "Ġsleepy": 2488,
      "Ġpin": 2489,
      "Ġwaves": 2490,
      "Ġjelly": 2491,
      "Ġtest": 2492,
      "Ġsighed": 2493,
      "Ġfancy": 2494,
      "There": 2495,
      "Ġflag": 2496,
      "Ġsandwich": 2497,
      "Ġburn": 2498,
      "ĠMum": 2499,
      "ĠTogether": 2500,
      "Sorry": 2501,
      "Ġthankful": 2502,
      "Where": 2503,
      "Ġbedroom": 2504,
      "Ġpowerful": 2505,
      "Ġship": 2506,
      "Ġtick": 2507,
      "Ġtaught": 2508,
      "body": 2509,
      "Ġscarf": 2510,
      "Ġsold": 2511,
      "Ġkissed": 2512,
      "Ġner": 2513,
      "Ġcirc": 2514,
      "ĠBe": 2515,
      "lower": 2516,
      "Ġcrown": 2517,
      "Ġpir": 2518,
      "Ġtwirl": 2519,
      "era": 2520,
      "Ġboring": 2521,
      "'d": 2522,
      "Ġdeer": 2523,
      "Ġmot": 2524,
      "ote": 2525,
      "Ġnervous": 2526,
      "Ġreg": 2527,
      "Ġcaterp": 2528,
      "Ġcaterpill": 2529,
      "mb": 2530,
      "Ġmysterious": 2531,
      "Ġtears": 2532,
      "arl": 2533,
      "Ġfrustrated": 2534,
      "Ġpolite": 2535,
      "Ġspoil": 2536,
      "Are": 2537,
      "af": 2538,
      "work": 2539,
      "assed": 2540,
      "Ġpassed": 2541,
      "Ġscr": 2542,
      "Ġcloset": 2543,
      "Ġoften": 2544,
      "oof": 2545,
      "Ġhur": 2546,
      "Ġyourself": 2547,
      "Ġdrop": 2548,
      "Ġminutes": 2549,
      "Ġhang": 2550,
      "obby": 2551,
      "Ġdetermined": 2552,
      "Ġfig": 2553,
      "Ġleg": 2554,
      "pack": 2555,
      "Ġrad": 2556,
      "Ġclown": 2557,
      "Ġgets": 2558,
      "Ġexcite": 2559,
      "ensive": 2560,
      "selves": 2561,
      "issors": 2562,
      "ina": 2563,
      "Ġfil": 2564,
      "Ġgate": 2565,
      "Ġcap": 2566,
      "Ġexpensive": 2567,
      "Ġbridge": 2568,
      "Ġchew": 2569,
      "Ġdancing": 2570,
      "iddle": 2571,
      "Ġchest": 2572,
      "Ġgathered": 2573,
      "light": 2574,
      "Ġscissors": 2575,
      "Jane": 2576,
      "Ġpicks": 2577,
      "Ġflut": 2578,
      "Ġsaved": 2579,
      "ets": 2580,
      "Ġfinger": 2581,
      "usie": 2582,
      "illed": 2583,
      "Ġwagged": 2584,
      "ates": 2585,
      "ĠOK": 2586,
      "ual": 2587,
      "Ġesc": 2588,
      "izzy": 2589,
      "Ġcaterpillar": 2590,
      "Ġwolf": 2591,
      "ĠLeo": 2592,
      "Ġboss": 2593,
      "Ġwander": 2594,
      "osaur": 2595,
      "Ġgrumpy": 2596,
      "Ġdrum": 2597,
      "Ġcomfortable": 2598,
      "Ġlock": 2599,
      "Ġpacked": 2600,
      "Ġqueen": 2601,
      "Ġanswered": 2602,
      "ond": 2603,
      "Ġhopping": 2604,
      "Ġworking": 2605,
      "ots": 2606,
      "Ġspend": 2607,
      "Ġdogs": 2608,
      "Ġmistake": 2609,
      "Ġexcitement": 2610,
      "Ġlit": 2611,
      "Their": 2612,
      "Ġmummy": 2613,
      "Ġdinosaur": 2614,
      "Ġstuff": 2615,
      "Ġtaken": 2616,
      "ĠPeter": 2617,
      "Ġcand": 2618,
      "ĠBl": 2619,
      "Ġknight": 2620,
      "Ġvegetables": 2621,
      "uce": 2622,
      "Ġmedic": 2623,
      "Ġwheel": 2624,
      "Ġwalks": 2625,
      "Ġdrawing": 2626,
      "Ġmiddle": 2627,
      "Ġpress": 2628,
      "Ġbone": 2629,
      "ggs": 2630,
      "Ġeggs": 2631,
      "ĠBr": 2632,
      "Ġtrue": 2633,
      "Ġlazy": 2634,
      "que": 2635,
      "Ġlose": 2636,
      "Ġgiggled": 2637,
      "Ġcrawl": 2638,
      "Ġones": 2639,
      "Ġruined": 2640,
      "Ġfruits": 2641,
      "Ġmir": 2642,
      "Ġwis": 2643,
      "Who": 2644,
      "Ġdest": 2645,
      "ugar": 2646,
      "Ġclap": 2647,
      "Ġmedicine": 2648,
      "Ġadd": 2649,
      "Ġnumber": 2650,
      "Ġbathroom": 2651,
      "Ġsmelly": 2652,
      "iness": 2653,
      "Ġasking": 2654,
      "ecially": 2655,
      "Ġexam": 2656,
      "Ġfake": 2657,
      "Ġsugar": 2658,
      "Ġfeathers": 2659,
      "Ġsight": 2660,
      "Ġstones": 2661,
      "Ġbrush": 2662,
      "Ġgar": 2663,
      "Ġlicked": 2664,
      "Ġsweetie": 2665,
      "Ġtape": 2666,
      "pecially": 2667,
      "Ġespecially": 2668,
      "ror": 2669,
      "aser": 2670,
      "Ġteam": 2671,
      "Ġweak": 2672,
      "Ġchange": 2673,
      "ushed": 2674,
      "Ġbody": 2675,
      "Ġdistance": 2676,
      "Ġnod": 2677,
      "Ġroar": 2678,
      "ella": 2679,
      "Ġdrank": 2680,
      "Ġpleased": 2681,
      "elp": 2682,
      "Ġlead": 2683,
      "Me": 2684,
      "Ġmatch": 2685,
      "Ġbake": 2686,
      "Ġpray": 2687,
      "Ġcri": 2688,
      "Ġcage": 2689,
      "Ġsplashed": 2690,
      "Ġfluffy": 2691,
      "Ġballs": 2692,
      "Ġmic": 2693,
      "ĠIf": 2694,
      "Ġyours": 2695,
      "ĠNo": 2696,
      "Ġmov": 2697,
      "ating": 2698,
      "Ġlying": 2699,
      "Ġcalling": 2700,
      "aged": 2701,
      "Ġfis": 2702,
      "Ġsailed": 2703,
      "Ġmoving": 2704,
      "uggest": 2705,
      "Ġlemon": 2706,
      "Ġglow": 2707,
      "Ġtie": 2708,
      "Ġsuggest": 2709,
      "Ġdisappeared": 2710,
      "Ġboard": 2711,
      "hip": 2712,
      "Ġsell": 2713,
      "Ġnoisy": 2714,
      "Ġglue": 2715,
      "ha": 2716,
      "ĠJohnny": 2717,
      "Ġwrote": 2718,
      "Ġsoap": 2719,
      "Ġclear": 2720,
      "ete": 2721,
      "Ġrelax": 2722,
      "Ġrid": 2723,
      "Ġok": 2724,
      "Ġweek": 2725,
      "Ġeld": 2726,
      "Help": 2727,
      "Ġdecide": 2728,
      "Ġbecome": 2729,
      "Ġincred": 2730,
      "Ġmoms": 2731,
      "Ġmeasure": 2732,
      "Ġjuicy": 2733,
      "Ġmirror": 2734,
      "Ġcovered": 2735,
      "alous": 2736,
      "Ġplayground": 2737,
      "Jimmy": 2738,
      "Ġshows": 2739,
      "Ġjealous": 2740,
      "yal": 2741,
      "Ġhorn": 2742,
      "Ġquestions": 2743,
      "Ġfine": 2744,
      "Ġrare": 2745,
      "Ġcontent": 2746,
      "Ġboys": 2747,
      "ination": 2748,
      "Ġcraw": 2749,
      "imp": 2750,
      "Ġeager": 2751,
      "Ġcrawled": 2752,
      "Ġtowel": 2753,
      "ĠAt": 2754,
      "Ġcheck": 2755,
      "ipp": 2756,
      "Ġskipped": 2757,
      "Ġdig": 2758,
      "Ġfather": 2759,
      "Ġind": 2760,
      "Ġcleaned": 2761,
      "enny": 2762,
      "Ġext": 2763,
      "Ġord": 2764,
      "Ġfamous": 2765,
      "Ġeye": 2766,
      "Ġtwist": 2767,
      "Ġneeds": 2768,
      "Sally": 2769,
      "Ġshoot": 2770,
      "ĠBlue": 2771,
      "Ġgarage": 2772,
      "Ġjoke": 2773,
      "Ġincredible": 2774,
      "ĠEnd": 2775,
      "Ġtrucks": 2776,
      "eez": 2777,
      "Ġed": 2778,
      "umbled": 2779,
      "Ġsword": 2780,
      "Ġtiger": 2781,
      "Ġloyal": 2782,
      "Jill": 2783,
      "illi": 2784,
      "Ġhose": 2785,
      "Ġbubbles": 2786,
      "ory": 2787,
      "Ġmap": 2788,
      "Ġorganized": 2789,
      "Ġunus": 2790,
      "Ġhappening": 2791,
      "ti": 2792,
      "Ġrealised": 2793,
      "Ġbranches": 2794,
      "Ġlamp": 2795,
      "Ġword": 2796,
      "fic": 2797,
      "Ġborrow": 2798,
      "Ġtag": 2799,
      "Ġdiscovered": 2800,
      "Ġmotor": 2801,
      "Ġunusual": 2802,
      "Ġdish": 2803,
      "ipper": 2804,
      "Ġhurts": 2805,
      "Ġwand": 2806,
      "Ġextra": 2807,
      "cil": 2808,
      "Ġsil": 2809,
      "Ġfrown": 2810,
      "Ġknife": 2811,
      "Ġrich": 2812,
      "Ġpencil": 2813,
      "Ġelderly": 2814,
      "Ġthick": 2815,
      "Ġballoons": 2816,
      "lies": 2817,
      "Ġmod": 2818,
      "Ġwhale": 2819,
      "Ġcover": 2820,
      "Ġdiffic": 2821,
      "Ġlouder": 2822,
      "Ġfigure": 2823,
      "Ġonce": 2824,
      "Ġcost": 2825,
      "port": 2826,
      "asing": 2827,
      "ique": 2828,
      "Ġfour": 2829,
      "Ġguess": 2830,
      "Billy": 2831,
      "Ġbottom": 2832,
      "keep": 2833,
      "Spot": 2834,
      "Ġdifficult": 2835,
      "ĠKitty": 2836,
      "Ġaw": 2837,
      "Ġtoug": 2838,
      "Ġlaughs": 2839,
      "Ġflash": 2840,
      "Ġcolourful": 2841,
      "ĠSp": 2842,
      "Ġunique": 2843,
      "Ġang": 2844,
      "Ġcompet": 2845,
      "Ġarg": 2846,
      "Ġoffered": 2847,
      "Gra": 2848,
      "Ġchase": 2849,
      "ery": 2850,
      "Ġham": 2851,
      "Ġshake": 2852,
      "Ġboxes": 2853,
      "Ġbalance": 2854,
      "fast": 2855,
      "imed": 2856,
      "Ġadded": 2857,
      "ĠMark": 2858,
      "Ġspun": 2859,
      "cept": 2860,
      "Ġturt": 2861,
      "Ġwrapped": 2862,
      "Ġhero": 2863,
      "Ġbarn": 2864,
      "Ġadventur": 2865,
      "Ġjewel": 2866,
      "Ġstraw": 2867,
      "Ġberries": 2868,
      "ately": 2869,
      "Ġcoins": 2870,
      "Ġkindness": 2871,
      "ĠLittle": 2872,
      "Ġgiving": 2873,
      "Ġbreakfast": 2874,
      "Ġlog": 2875,
      "?\".": 2876,
      "Ġchicken": 2877,
      "ages": 2878,
      "Sue": 2879,
      "Ġbloom": 2880,
      "ature": 2881,
      "Ġbald": 2882,
      "Ġgoat": 2883,
      "ured": 2884,
      "Ġbanana": 2885,
      "rag": 2886,
      "Ġmighty": 2887,
      "Ġnorm": 2888,
      "Ġadventurous": 2889,
      "Ġswan": 2890,
      "Ġdolp": 2891,
      "ye": 2892,
      "Ġfool": 2893,
      "Ġmanaged": 2894,
      "Ġfalls": 2895,
      "land": 2896,
      "Ġpump": 2897,
      "Ġlifted": 2898,
      "ym": 2899,
      "Ġtough": 2900,
      "How": 2901,
      "Ġcher": 2902,
      "Ġpointing": 2903,
      "ject": 2904,
      "Ġhelps": 2905,
      "uggled": 2906,
      "Well": 2907,
      "Ġdizzy": 2908,
      "Ġcircle": 2909,
      "Here": 2910,
      "Ġpee": 2911,
      "Ġwagon": 2912,
      "alk": 2913,
      "olog": 2914,
      "Ġharder": 2915,
      "ouses": 2916,
      "Ġdreamed": 2917,
      "keeper": 2918,
      "Ġcompetit": 2919,
      "Ġweird": 2920,
      "Joe": 2921,
      "Ġsmoke": 2922,
      "Ġmelt": 2923,
      "Ġloudly": 2924,
      "Ġnormal": 2925,
      "oppy": 2926,
      "Ġbelonged": 2927,
      "Ġbossy": 2928,
      "Ġmarket": 2929,
      "Ġimpressed": 2930,
      "Ġfat": 2931,
      "Ġears": 2932,
      "Ġgrown": 2933,
      "Ġwrap": 2934,
      "ĠSusie": 2935,
      "Ġapolog": 2936,
      "Ġskin": 2937,
      "Ġshape": 2938,
      "Ġhats": 2939,
      "ilt": 2940,
      "Ġknows": 2941,
      "Ġicy": 2942,
      "Ġstubb": 2943,
      "Ġlearning": 2944,
      "und": 2945,
      "emo": 2946,
      "Ġagainst": 2947,
      "ĠMy": 2948,
      "Ġsearch": 2949,
      "Ġhunt": 2950,
      "Ġhouses": 2951,
      "Ġdepend": 2952,
      "Ġscare": 2953,
      "Ġenjoying": 2954,
      "pes": 2955,
      "anged": 2956,
      "Ġmeans": 2957,
      "Ġfavour": 2958,
      "ĠBrown": 2959,
      "Ġharm": 2960,
      "Ġslipped": 2961,
      "ĠRose": 2962,
      "Ġbrothers": 2963,
      "head": 2964,
      "Amy": 2965,
      "Ġrough": 2966,
      "Ġpainting": 2967,
      "Ġedge": 2968,
      "reen": 2969,
      "Ġchoose": 2970,
      "Ġbrilli": 2971,
      "Ġgrace": 2972,
      "Ġrecord": 2973,
      "Ġbuttons": 2974,
      "Ġref": 2975,
      "Ġfright": 2976,
      "Ġstubborn": 2977,
      "apping": 2978,
      "ready": 2979,
      "Ġfavourite": 2980,
      "Ġshells": 2981,
      "Ġfoolish": 2982,
      "Ġjack": 2983,
      "Ġsafely": 2984,
      "Ġbrilliant": 2985,
      "Ġbatter": 2986,
      "Al": 2987,
      "Ġcudd": 2988,
      "ĠToday": 2989,
      "Ġtoast": 2990,
      "Ġfridge": 2991,
      "Ġcircles": 2992,
      "omed": 2993,
      "Ġspace": 2994,
      "Ġstri": 2995,
      "iv": 2996,
      "Ġguit": 2997,
      "Ġter": 2998,
      "Ġcro": 2999,
      "Ġhappiness": 3000,
      "rage": 3001,
      "Ġalready": 3002,
      "Ġrat": 3003,
      "Ġbitter": 3004,
      "Ġturtle": 3005,
      "aw": 3006,
      "erry": 3007,
      "Ġyog": 3008,
      "Ġwalls": 3009,
      "Ġoffice": 3010,
      "Ġlibr": 3011,
      "Ġwake": 3012,
      "Ġlaw": 3013,
      "Ġsounded": 3014,
      "Ġisland": 3015,
      "Ġstrawber": 3016,
      "Ġmixed": 3017,
      "edient": 3018,
      "Ġegg": 3019,
      "Ġsaying": 3020,
      "Ġclay": 3021,
      "Ġdreams": 3022,
      "Ġcrack": 3023,
      "Ġcheerful": 3024,
      "Mummy": 3025,
      "ext": 3026,
      "erg": 3027,
      "arth": 3028,
      "Ġtrunk": 3029,
      "iable": 3030,
      "Ġbags": 3031,
      "Ġcam": 3032,
      "Ġunl": 3033,
      "Ġsmaller": 3034,
      "Ġvalu": 3035,
      "Ġmovie": 3036,
      "Ġroof": 3037,
      "Ġescape": 3038,
      "ache": 3039,
      "Ġnosy": 3040,
      "Ġfier": 3041,
      "Ġguitar": 3042,
      "Ġshark": 3043,
      "Ġnotice": 3044,
      "Ġexcla": 3045,
      "Ġpoured": 3046,
      "Ġaccept": 3047,
      "Ġparrot": 3048,
      "Ġstronger": 3049,
      "Ġcab": 3050,
      "Ġstream": 3051,
      "Ġmagn": 3052,
      "Ġtunn": 3053,
      "sc": 3054,
      "Ġcrayon": 3055,
      "Ġobedient": 3056,
      "Ġinvited": 3057,
      "arry": 3058,
      "Ġweal": 3059,
      "Ġnicely": 3060,
      "Ġexclaimed": 3061,
      "Ġuseful": 3062,
      "Ġdependable": 3063,
      "Ġlow": 3064,
      "Ġtools": 3065,
      "ĠMrs": 3066,
      "Ġsuggested": 3067,
      "Ġreliable": 3068,
      "Ġcabin": 3069,
      "ĠBobby": 3070,
      "Ġfierce": 3071,
      "Ġtimes": 3072,
      "Ġproudly": 3073,
      "Ġterri": 3074,
      "Ġthu": 3075,
      "Ġcounted": 3076,
      "Ġscrat": 3077,
      "Ġfingers": 3078,
      "Ġrose": 3079,
      "Ġcity": 3080,
      "ado": 3081,
      "Ġindepend": 3082,
      "Ġshowing": 3083,
      "ola": 3084,
      "Ġstudy": 3085,
      "Ġpil": 3086,
      "ĠBu": 3087,
      "Ġlean": 3088,
      "irp": 3089,
      "Ġbushes": 3090,
      "Ġdesign": 3091,
      "Ġabove": 3092,
      "Ġexplored": 3093,
      "Ġhoop": 3094,
      "wards": 3095,
      "Ġtummy": 3096,
      "Ġjoined": 3097,
      "Ġfrightened": 3098,
      "corn": 3099,
      "Ġstumbled": 3100,
      "Ġdead": 3101,
      "Ġgem": 3102,
      "ĠElla": 3103,
      "Ġkicked": 3104,
      "Ġfountain": 3105,
      "Ġbirdie": 3106,
      "Ġspinning": 3107,
      "na": 3108,
      "cient": 3109,
      "Ġspoiled": 3110,
      "Ġtwig": 3111,
      "Ġfrag": 3112,
      "Ġdough": 3113,
      "Ġlocked": 3114,
      "Ġlights": 3115,
      "Ġsuccessful": 3116,
      "Ġthemselves": 3117,
      "Ġstove": 3118,
      "Ġusing": 3119,
      "Ġcop": 3120,
      "Ġmem": 3121,
      "kn": 3122,
      "Ġwiped": 3123,
      "Ġjog": 3124,
      "Ġbrightly": 3125,
      "Ġexcitedly": 3126,
      "Ġzip": 3127,
      "Ġvaluable": 3128,
      "Ġrode": 3129,
      "Ġenorm": 3130,
      "Ġtele": 3131,
      "Ġindependent": 3132,
      "Ġenormous": 3133,
      "amond": 3134,
      "Ġancient": 3135,
      "az": 3136,
      "Ġyarn": 3137,
      "Ġswe": 3138,
      "ÅĵLet": 3139,
      "Ġfre": 3140,
      "Ġbeak": 3141,
      "ĠEllie": 3142,
      "Ġcleaning": 3143,
      "ĠYour": 3144,
      "Ġthoughtful": 3145,
      "Ġkinds": 3146,
      "Ġdelicate": 3147,
      "anut": 3148,
      "Ġjam": 3149,
      "Ġbuilt": 3150,
      "Ġresc": 3151,
      "ention": 3152,
      "Ġseem": 3153,
      "Ġeng": 3154,
      "Ġdiamond": 3155,
      "Ġreminded": 3156,
      "ither": 3157,
      "Ġsteal": 3158,
      "Ġow": 3159,
      "Ġpopcorn": 3160,
      "inal": 3161,
      "ĠNemo": 3162,
      "Ġshadow": 3163,
      "ipe": 3164,
      "Ġthirst": 3165,
      "ĠPete": 3166,
      "orge": 3167,
      "Ġholds": 3168,
      "Ġshone": 3169,
      "Ġsniff": 3170,
      "ĠDan": 3171,
      "Ġfragile": 3172,
      "Ġenvel": 3173,
      "Ġways": 3174,
      "mbre": 3175,
      "oot": 3176,
      "Ġadmired": 3177,
      "Ġumbre": 3178,
      "Ġstat": 3179,
      "Ġflute": 3180,
      "iginal": 3181,
      "Ġbean": 3182,
      "Ġtank": 3183,
      "Ġbounce": 3184,
      "Ġpractice": 3185,
      "uth": 3186,
      "upid": 3187,
      "known": 3188,
      "Ġbees": 3189,
      "ĠFin": 3190,
      "Ġmarble": 3191,
      "eeze": 3192,
      "Ġflashlight": 3193,
      "Ġchanged": 3194,
      "Ġgrandpa": 3195,
      "ĠDucky": 3196,
      "Ġcostum": 3197,
      "illa": 3198,
      "Ġwhispered": 3199,
      "Ġbump": 3200,
      "Ġrubb": 3201,
      "Ġfinding": 3202,
      "Ġbrace": 3203,
      "Ġpainted": 3204,
      "Ġhelm": 3205,
      "Ġpumpkin": 3206,
      "Ġhalf": 3207,
      "Ġlab": 3208,
      "umbers": 3209,
      "Ġsolve": 3210,
      "Ġcamera": 3211,
      "Ġpige": 3212,
      "ray": 3213,
      "cod": 3214,
      "Ġoriginal": 3215,
      "Ġserious": 3216,
      "Ġstamp": 3217,
      "Ġthirsty": 3218,
      "Ġsuit": 3219,
      "Ġunknown": 3220,
      "Ġtomato": 3221,
      "Ġstupid": 3222,
      "uring": 3223,
      "Ġpost": 3224,
      "Ġdove": 3225,
      "Ġplayful": 3226,
      "Ġstairs": 3227,
      "Ġraced": 3228,
      "Ġyet": 3229,
      "Ġbeet": 3230,
      "Ġsleeping": 3231,
      "Ġguard": 3232,
      "Ġopens": 3233,
      "Ġwealthy": 3234,
      "ĠU": 3235,
      "Ġclum": 3236,
      "Ġpicking": 3237,
      "Ġsalad": 3238,
      "Ġenc": 3239,
      "inary": 3240,
      "Ġcone": 3241,
      "Ġseeds": 3242,
      "Ġcomput": 3243,
      "gu": 3244,
      "Ġpebble": 3245,
      "Ġmis": 3246,
      "Ġchose": 3247,
      "Ġson": 3248,
      "Ġcrocod": 3249,
      "eorge": 3250,
      "ilty": 3251,
      "Ġallowed": 3252,
      "Ġpeanut": 3253,
      "Ġmole": 3254,
      "ĠFred": 3255,
      "Ġguilty": 3256,
      "Em": 3257,
      "Ġstops": 3258,
      "Ġangel": 3259,
      "Ġdolphin": 3260,
      "Ġforth": 3261,
      "Ġflex": 3262,
      "Ġcheap": 3263,
      "Ġnurse": 3264,
      "dom": 3265,
      "Ġwashed": 3266,
      "Ġdelighted": 3267,
      "Ġnature": 3268,
      "iew": 3269,
      "Ġdoesn": 3270,
      "Ġsearching": 3271,
      "Ġmetal": 3272,
      "Ġcere": 3273,
      "com": 3274,
      "Ġclock": 3275,
      "Ġmoder": 3276,
      "Ġsunf": 3277,
      "Ġcompass": 3278,
      "anger": 3279,
      "Ġjolly": 3280,
      "Ġmarch": 3281,
      "Ġboats": 3282,
      "Ġhammer": 3283,
      "vice": 3284,
      "ines": 3285,
      "Ġthose": 3286,
      "ugged": 3287,
      "Ġview": 3288,
      "Ġnumbers": 3289,
      "Ġleaving": 3290,
      "isk": 3291,
      "Ġtelling": 3292,
      "Ġclumsy": 3293,
      "See": 3294,
      "Ġrushed": 3295,
      "ĠBobo": 3296,
      "ĠAlice": 3297,
      "Ġfresh": 3298,
      "Ġhay": 3299,
      "Ġdull": 3300,
      "ience": 3301,
      "oomy": 3302,
      "Ġpant": 3303,
      "Ġarrow": 3304,
      "Ġprint": 3305,
      "Ġhairy": 3306,
      "ĠTweety": 3307,
      "ĠWhenever": 3308,
      "Ġdust": 3309,
      "Ġmissing": 3310,
      "het": 3311,
      "Ġregular": 3312,
      "gest": 3313,
      "Ġflexible": 3314,
      "Ġacorn": 3315,
      "ĠKim": 3316,
      "Ġshel": 3317,
      "Ġterrible": 3318,
      "Ġfriendship": 3319,
      "Ġprize": 3320,
      "Ġmodern": 3321,
      "!\".": 3322,
      "Ġspilled": 3323,
      "Ġengine": 3324,
      "Ġtem": 3325,
      "Ġtor": 3326,
      "Ġjug": 3327,
      "ations": 3328,
      "Ġtooth": 3329,
      "Ġsauce": 3330,
      "Ġending": 3331,
      "Ġbiggest": 3332,
      "Ġload": 3333,
      "Ġdriving": 3334,
      "Ġavo": 3335,
      "Ġaunt": 3336,
      "aghet": 3337,
      "Ġpotato": 3338,
      "aghetti": 3339,
      "Ġbarber": 3340,
      "Ġenvelope": 3341,
      "Ġsink": 3342,
      "Ġtowers": 3343,
      "Ġumbrella": 3344,
      "Ġsne": 3345,
      "Ġrub": 3346,
      "Ġpirate": 3347,
      "Ġdestro": 3348,
      "ict": 3349,
      "Ġhanded": 3350,
      "Ġpeeked": 3351,
      "fa": 3352,
      "Ġpopular": 3353,
      "Ġpatter": 3354,
      "Ġhandle": 3355,
      "time": 3356,
      "Ġloll": 3357,
      "Ġcareless": 3358,
      "Ġwire": 3359,
      "ĠSn": 3360,
      "Ġdreaming": 3361,
      "Ġcarrying": 3362,
      "Ġbeetle": 3363,
      "Ġscreen": 3364,
      "ipop": 3365,
      "Ġthunder": 3366,
      "Ġspaghetti": 3367,
      "Ġchar": 3368,
      "Go": 3369,
      "While": 3370,
      "Ġtied": 3371,
      "ĠMar": 3372,
      "Ġgraceful": 3373,
      "Ġing": 3374,
      "Ġwing": 3375,
      "Ġcomb": 3376,
      "Ġprep": 3377,
      "Ġcereal": 3378,
      "Ġstage": 3379,
      "ĠBella": 3380,
      "Ġlollipop": 3381,
      "Ġjacket": 3382,
      "Ġtunnel": 3383,
      "Ġstatue": 3384,
      "Ġmush": 3385,
      "Ġrubbed": 3386,
      "Ġcompassion": 3387,
      "Ġgoose": 3388,
      "Ġknock": 3389,
      "Ġpattern": 3390,
      "Ġdesk": 3391,
      "Ġreward": 3392,
      "Ġscatter": 3393,
      "Ġslides": 3394,
      "redient": 3395,
      "Ġingredient": 3396,
      "Ġshocked": 3397,
      "Ġer": 3398,
      "Ġcomputer": 3399,
      "Ġcur": 3400,
      "ision": 3401,
      "Ġnote": 3402,
      "Ġdeliver": 3403,
      "Ġscale": 3404,
      "Ġstack": 3405,
      "Ġmel": 3406,
      "robe": 3407,
      "Ġsquare": 3408,
      "Ġgrand": 3409,
      "Ġmeal": 3410,
      "arsh": 3411,
      "Ġbull": 3412,
      "Ġtrap": 3413,
      "Ġliz": 3414,
      "Ġtruth": 3415,
      "Ġcrazy": 3416,
      "Ġbracelet": 3417,
      "Ġcrocodile": 3418,
      "ĠMike": 3419,
      "eezed": 3420,
      "Ġpengu": 3421,
      "Ġpow": 3422,
      "Ġtravel": 3423,
      "Ġwitch": 3424,
      "Ġshiver": 3425,
      "Ġgasped": 3426,
      "Ġmask": 3427,
      "Ġimagined": 3428,
      "âĤ¬âĢ": 3429,
      "Ġimpressive": 3430,
      "Ġrug": 3431,
      "Ġtrash": 3432,
      "Ġperform": 3433,
      "Ġpersist": 3434,
      "ellig": 3435,
      "Ġcollar": 3436,
      "Ġearth": 3437,
      "ĠWhile": 3438,
      "Ġintellig": 3439,
      "ĠPe": 3440,
      "Ġearly": 3441,
      "Ġpup": 3442,
      "Ġjumps": 3443,
      "Ow": 3444,
      "Ġthinking": 3445,
      "Ġadvice": 3446,
      "host": 3447,
      "io": 3448,
      "uddy": 3449,
      "ement": 3450,
      "iches": 3451,
      "Ġwheels": 3452,
      "Ġstranger": 3453,
      "Ġcrane": 3454,
      "Ġspring": 3455,
      "uper": 3456,
      "Ġnames": 3457,
      "Ġenv": 3458,
      "Ġperm": 3459,
      "Ġwindows": 3460,
      "Ġenth": 3461,
      "comfort": 3462,
      "Ġfork": 3463,
      "ÅĵWhat": 3464,
      "Ġspoke": 3465,
      "ibb": 3466,
      "Ġghost": 3467,
      "illie": 3468,
      "ĠDave": 3469,
      "Ġbent": 3470,
      "ikes": 3471,
      "ĠLook": 3472,
      "Ġbeauty": 3473,
      "ophie": 3474,
      "Ġstickers": 3475,
      "Ġcreate": 3476,
      "Ġobject": 3477,
      "Ġlibrary": 3478,
      "Ġenthus": 3479,
      "Ġcelebrate": 3480,
      "Ġmushroom": 3481,
      "Ġingredients": 3482,
      "aches": 3483,
      "comfortable": 3484,
      "Ġwaff": 3485,
      "Ġmill": 3486,
      "Ġgrowing": 3487,
      "Ġorder": 3488,
      "Ġwarned": 3489,
      "Ġphot": 3490,
      "Ġmailbox": 3491,
      "Ġuncomfortable": 3492,
      "Ġdiscover": 3493,
      "Ġbutterflies": 3494,
      "Ġreading": 3495,
      "Ġpale": 3496,
      "Ġhipp": 3497,
      "Ġtorn": 3498,
      "awn": 3499,
      "Ġcamp": 3500,
      "Ġsorts": 3501,
      "Ġsparkled": 3502,
      "ĠHere": 3503,
      "ÅĵLetÃ¢": 3504,
      "Ġpigeon": 3505,
      "Ġquestion": 3506,
      "Ġsofa": 3507,
      "ebra": 3508,
      "Ġharmless": 3509,
      "Ġcomplet": 3510,
      "Ġletters": 3511,
      "Ġparade": 3512,
      "coa": 3513,
      "Ġcompetitive": 3514,
      "Ġflour": 3515,
      "ÅĵYes": 3516,
      "Ġanx": 3517,
      "tter": 3518,
      "Ġsudden": 3519,
      "ÅĵIt": 3520,
      "Ġuncle": 3521,
      "Ġpretending": 3522,
      "Ġpenny": 3523,
      "Ġgor": 3524,
      "Ġdestroy": 3525,
      "Ġsandwiches": 3526,
      "Ġnuts": 3527,
      "Ġahead": 3528,
      "Ġrece": 3529,
      "Ġblueber": 3530,
      "orant": 3531,
      "Ġcounting": 3532,
      "Ġpatch": 3533,
      "loo": 3534,
      "Ġbadly": 3535,
      "ips": 3536,
      "ince": 3537,
      "Ġpony": 3538,
      "Ġshut": 3539,
      "Ġlizard": 3540,
      "Ġanxious": 3541,
      "Ġzebra": 3542,
      "Ġbeep": 3543,
      "Ġplaced": 3544,
      "Ġsurf": 3545,
      "Ġcooking": 3546,
      "Ġpiano": 3547,
      "Ġneat": 3548,
      "Ġhumble": 3549,
      "Ġhook": 3550,
      "ices": 3551,
      "Ġencou": 3552,
      "Ġsadly": 3553,
      "Ġsnuggled": 3554,
      "Ġcocoa": 3555,
      "Ġuniver": 3556,
      "Ġhung": 3557,
      "Ġmay": 3558,
      "Ġignorant": 3559,
      "ĠGrandpa": 3560,
      "ric": 3561,
      "Ġtwirled": 3562,
      "Ġintelligent": 3563,
      "Ġstation": 3564,
      "Ġsunflower": 3565,
      "Ġbase": 3566,
      "Ġotter": 3567,
      "stri": 3568,
      "ses": 3569,
      "ĠcouldnÃ¢": 3570,
      "ĠMummy": 3571,
      "aid": 3572,
      "oe": 3573,
      "Ġpersistent": 3574,
      "Ġdug": 3575,
      "Ġpepper": 3576,
      "Ġtriang": 3577,
      "Ġnail": 3578,
      "Ġcards": 3579,
      "Ġrefused": 3580,
      "Yay": 3581,
      "Ġtask": 3582,
      "Ġspeed": 3583,
      "Ġgum": 3584,
      "ief": 3585,
      "Ġrules": 3586,
      "cream": 3587,
      "Ġgloomy": 3588,
      "Ġcupboard": 3589,
      "Ġpants": 3590,
      "gust": 3591,
      "arian": 3592,
      "Ġchance": 3593,
      "Ġfearful": 3594,
      "Ġtur": 3595,
      "Ġchasing": 3596,
      "ud": 3597,
      "Ġcharming": 3598,
      "Ġleash": 3599,
      "Ġstarts": 3600,
      "Ġshaking": 3601,
      "Ġdisgust": 3602,
      "Ġsett": 3603,
      "Ġcreatures": 3604,
      "Ġdeaf": 3605,
      "Ġattract": 3606,
      "ĠGive": 3607,
      "ĠBear": 3608,
      "used": 3609,
      "Ġtrick": 3610,
      "Ġcarp": 3611,
      "Ġordinary": 3612,
      "Mary": 3613,
      "Ġtrack": 3614,
      "ĠFr": 3615,
      "Ġpasta": 3616,
      "cu": 3617,
      "Ġresist": 3618,
      "erable": 3619,
      "ĠWh": 3620,
      "Ġanywhere": 3621,
      "Ġtrump": 3622,
      "Ġolder": 3623,
      "Ġcartoon": 3624,
      "Ġsuper": 3625,
      "lcano": 3626,
      "Ġcurt": 3627,
      "Ġgifted": 3628,
      "cut": 3629,
      "Ġhippo": 3630,
      "Ġcurtain": 3631,
      "Ġled": 3632,
      "Ġyawn": 3633,
      "Ġmiserable": 3634,
      "ceed": 3635,
      "Ġsquash": 3636,
      "Ġcourage": 3637,
      "Ġcricket": 3638,
      "ĠSm": 3639,
      "Ġbrighter": 3640,
      "Ġgorilla": 3641,
      "Give": 3642,
      "Ġimpat": 3643,
      "Re": 3644,
      "bled": 3645,
      "Ġsend": 3646,
      "Ġpurse": 3647,
      "Ġgir": 3648,
      "Ġalert": 3649,
      "Ġjet": 3650,
      "Ġpracticed": 3651,
      "Ġturkey": 3652,
      "Ġclub": 3653,
      "Ġhurry": 3654,
      "Ġhelmet": 3655,
      "Ġshouts": 3656,
      "Ġvalue": 3657,
      "Ġdecorate": 3658,
      "ĠPat": 3659,
      "Ġbandage": 3660,
      "ĠSh": 3661,
      "opus": 3662,
      "ctopus": 3663,
      "Ġsoldier": 3664,
      "Ġfu": 3665,
      "urb": 3666,
      "Ġcompl": 3667,
      "Ġostri": 3668,
      "Ġscoot": 3669,
      "ĠJoey": 3670,
      "Ġimpatient": 3671,
      "Ġtire": 3672,
      "Ġcase": 3673,
      "Ġdisturb": 3674,
      "iest": 3675,
      "htub": 3676,
      "Ġallig": 3677,
      "Ġvolcano": 3678,
      "Ġcompassionate": 3679,
      "Ġtrumpet": 3680,
      "Ġbathtub": 3681,
      "Ġshine": 3682,
      "Ġoctopus": 3683,
      "Ġbounced": 3684,
      "Ġsupport": 3685,
      "Ġitself": 3686,
      "aked": 3687,
      "ĠToby": 3688,
      "Ġspell": 3689,
      "Ġdrawer": 3690,
      "Ġcarpet": 3691,
      "Ġdisgusting": 3692,
      "Ġjeep": 3693,
      "ĠEventually": 3694,
      "Ġpressed": 3695,
      "ĠAre": 3696,
      "Ġsalt": 3697,
      "Ġbicy": 3698,
      "Ġmeas": 3699,
      "Ġgrabs": 3700,
      "Ġfilthy": 3701,
      "Ġmelon": 3702,
      "ĠLola": 3703,
      "noon": 3704,
      "Ġcomet": 3705,
      "Ġafternoon": 3706,
      "Ġbarking": 3707,
      "Ġmug": 3708,
      "Ġrestless": 3709,
      "aff": 3710,
      "Ġshoe": 3711,
      "Ġhunter": 3712,
      "Bye": 3713,
      "Ġenvious": 3714,
      "Ġbri": 3715,
      "Ġhelpless": 3716,
      "Ġtray": 3717,
      "Ġfirework": 3718,
      "Ġsucceed": 3719,
      "Ġpulls": 3720,
      "icop": 3721,
      "ĠWhere": 3722,
      "icopter": 3723,
      "Ġstretched": 3724,
      "Ġtemp": 3725,
      "Ġten": 3726,
      "ubby": 3727,
      "Ġnowhere": 3728,
      "ĠAlex": 3729,
      "Ġskip": 3730,
      "Ġadmire": 3731,
      "Ġattractive": 3732,
      "Ġcryst": 3733,
      "Ġlively": 3734,
      "Ġnobody": 3735,
      "Ġmagnet": 3736,
      "Ġhelicopter": 3737,
      "aroo": 3738,
      "Ġshield": 3739,
      "Ġexplain": 3740,
      "angaroo": 3741,
      "gging": 3742,
      "Ġhuman": 3743,
      "Ġrepe": 3744,
      "aurant": 3745,
      "Ġneedle": 3746,
      "Ġorganize": 3747,
      "gn": 3748,
      "Ġsomewhere": 3749,
      "If": 3750,
      "Ġfive": 3751,
      "Ġrestaurant": 3752,
      "Ġgiggle": 3753,
      "Ġcush": 3754,
      "aby": 3755,
      "Ġcats": 3756,
      "Ġcows": 3757,
      "Ġleop": 3758,
      "Ġvine": 3759,
      "Ġanyway": 3760,
      "Ġbarrel": 3761,
      "ser": 3762,
      "Ġkangaroo": 3763,
      "Ġbet": 3764,
      "Ġvide": 3765,
      "Ġmonkeys": 3766,
      "Ġattic": 3767,
      "Ġsplit": 3768,
      "Benny": 3769,
      "Ġsticker": 3770,
      "Ġcooked": 3771,
      "Ġlions": 3772,
      "ĠTweetie": 3773,
      "Ġreco": 3774,
      "Ġwishes": 3775,
      "Ġostrich": 3776,
      "ĠPolly": 3777,
      "ophone": 3778,
      "Ġdess": 3779,
      "enry": 3780,
      "Ġthief": 3781,
      "ÅĵThat": 3782,
      "Ġthread": 3783,
      "Ġchubby": 3784,
      "Ġpoem": 3785,
      "Ġants": 3786,
      "Ġsandbox": 3787,
      "Ġfurther": 3788,
      "Ġbackpack": 3789,
      "Ġseal": 3790,
      "Ġpun": 3791,
      "Ġgoal": 3792,
      "Ġdistant": 3793,
      "Ġrespectful": 3794,
      "ĠMandy": 3795,
      "ebook": 3796,
      "Ġtap": 3797,
      "inking": 3798,
      "Ġscrew": 3799,
      "ĠCl": 3800,
      "Ġradio": 3801,
      "Ġnotebook": 3802,
      "Ġvi": 3803,
      "Ġpaws": 3804,
      "ummer": 3805,
      "astic": 3806,
      "Ġribb": 3807,
      "stairs": 3808,
      "Ġholes": 3809,
      "Ġharsh": 3810,
      "Ġunpack": 3811,
      "Ġfinds": 3812,
      "Ġraven": 3813,
      "par": 3814,
      "Ġmuff": 3815,
      "Ġsent": 3816,
      "Ġsepar": 3817,
      "Ġpushes": 3818,
      "Everyone": 3819,
      "iskers": 3820,
      "Ġmath": 3821,
      "Ġfireman": 3822,
      "Ġmodest": 3823,
      "Ġstirred": 3824,
      "Ġswitch": 3825,
      "arlie": 3826,
      "Alice": 3827,
      "Ġalligator": 3828,
      "Ġsteps": 3829,
      "shed": 3830,
      "Ġstared": 3831,
      "Ġelev": 3832,
      "orable": 3833,
      "Ġfrowned": 3834,
      "ĠEverything": 3835,
      "Ġpackage": 3836,
      "night": 3837,
      "Ġsweater": 3838,
      "Ġleopard": 3839,
      "Ġhedge": 3840,
      "Ġavoc": 3841,
      "Ġpand": 3842,
      "Ġcardboard": 3843,
      "Ġbicycle": 3844,
      "hood": 3845,
      "stic": 3846,
      "Ġwheat": 3847,
      "Ġmicr": 3848,
      "ipping": 3849,
      "Ġlid": 3850,
      "Ġrice": 3851,
      "Ġcube": 3852,
      "Ġsize": 3853,
      "Ġsheet": 3854,
      "Ġelevator": 3855,
      "Ġsoar": 3856,
      "Ġfort": 3857,
      "Ġdrawings": 3858,
      "cycle": 3859,
      "Ġbikes": 3860,
      "Ġbehave": 3861,
      "Ġjokes": 3862,
      "Ġlightning": 3863,
      "Ġcandle": 3864,
      "ĠSmith": 3865,
      "Ġur": 3866,
      "Ġadorable": 3867,
      "Ġimpro": 3868,
      "iastic": 3869,
      "Ġsilver": 3870,
      "Ġenthusiastic": 3871,
      "Ġmeat": 3872,
      "Ġbreat": 3873,
      "ĠBrownie": 3874,
      "ci": 3875,
      "Ġhive": 3876,
      "iron": 3877,
      "Ġbears": 3878,
      "Ġsort": 3879,
      "Ġhaircut": 3880,
      "elery": 3881,
      "Ġexper": 3882,
      "Ġspeak": 3883,
      "gie": 3884,
      "Ġhappier": 3885,
      "heart": 3886,
      "Ġdessert": 3887,
      "Ġmicrophone": 3888,
      "ĠBuddy": 3889,
      "come": 3890,
      "Ġsle": 3891,
      "Ġloop": 3892,
      "Ġchain": 3893,
      "irit": 3894,
      "Ġquite": 3895,
      "Ġrepair": 3896,
      "Ġhall": 3897,
      "Ġeither": 3898,
      "aila": 3899,
      "ccol": 3900,
      "Ġpal": 3901,
      "ĠBill": 3902,
      "uct": 3903,
      "ĠGeorge": 3904,
      "Daisy": 3905,
      "ccoli": 3906,
      "Ġenerg": 3907,
      "Ġstretch": 3908,
      "Ġrecogn": 3909,
      "Ġtroubled": 3910,
      "Ġquar": 3911,
      "reci": 3912,
      "Ġmarry": 3913,
      "Ġoy": 3914,
      "ĠLee": 3915,
      "Ġchalk": 3916,
      "ĠRed": 3917,
      "Ġprov": 3918,
      "aulif": 3919,
      "Ġtripped": 3920,
      "Ġswinging": 3921,
      "cast": 3922,
      "Ġfle": 3923,
      "Ġboots": 3924,
      "Ġpole": 3925,
      "Ġappreci": 3926,
      "Ġroared": 3927,
      "Ġlistening": 3928,
      "Ġriding": 3929,
      "Ġpaid": 3930,
      "Ġjellyfish": 3931,
      "Ġgro": 3932,
      "Ġstom": 3933,
      "Ġdishes": 3934,
      "ailable": 3935,
      "Ġgolf": 3936,
      "Ġpapers": 3937,
      "Ġpor": 3938,
      "Ġforgave": 3939,
      "Ġshovel": 3940,
      "Ġcact": 3941,
      "Ġoat": 3942,
      "year": 3943,
      "Ġlip": 3944,
      "Ġchecked": 3945,
      "Ġsandcast": 3946,
      "apa": 3947,
      "Ġrescue": 3948,
      "Ġclapping": 3949,
      "Ġscold": 3950,
      "Ġrod": 3951,
      "Ġshelter": 3952,
      "eer": 3953,
      "ĠdidnÃ¢": 3954,
      "Ġmama": 3955,
      "Ġinse": 3956,
      "Ġwallet": 3957,
      "Ġbin": 3958,
      "cond": 3959,
      "Ġsecond": 3960,
      "Ġbuzz": 3961,
      "Ġavailable": 3962,
      "Ġcelery": 3963,
      "Ġsock": 3964,
      "Ġobser": 3965,
      "fee": 3966,
      "Ġink": 3967,
      "Ġshakes": 3968,
      "Ġpushing": 3969,
      "happy": 3970,
      "Ġtriangle": 3971,
      "Ha": 3972,
      "Ġeraser": 3973,
      "ffee": 3974,
      "Ġmessage": 3975,
      "Ġcaulif": 3976,
      "Ġpeek": 3977,
      "Ġgrapes": 3978,
      "Ġpalace": 3979,
      "Ġalive": 3980,
      "Ġtrains": 3981,
      "Ġshopkeeper": 3982,
      "Little": 3983,
      "Ġtrop": 3984,
      "Ġcolours": 3985,
      "Ġfalling": 3986,
      "Ġknot": 3987,
      "Ġfeelings": 3988,
      "Ġbroccoli": 3989,
      "Ġsailor": 3990,
      "Ġpoint": 3991,
      "ĠWhiskers": 3992,
      "ube": 3993,
      "Ġrag": 3994,
      "Ġcountry": 3995,
      "Ġbreaks": 3996,
      "Ġcostume": 3997,
      "Ġcactus": 3998,
      "Ġspirit": 3999,
      "Ġlear": 4000,
      "Ġraft": 4001,
      "Ġsmells": 4002,
      "Ġjudge": 4003,
      "Ġyach": 4004,
      "olin": 4005,
      "Ġlearnt": 4006,
      "Ġsummer": 4007,
      "Ġlaser": 4008,
      "Ġonion": 4009,
      "Ġsoftly": 4010,
      "Ġtuna": 4011,
      "ron": 4012,
      "render": 4013,
      "Ġshrimp": 4014,
      "Daddy": 4015,
      "Ġscooter": 4016,
      "Ġtrophy": 4017,
      "Ġluck": 4018,
      "Ġputting": 4019,
      "Ġclimbing": 4020,
      "Ġended": 4021,
      "Ġpolish": 4022,
      "Ġraining": 4023,
      "ĠSnow": 4024,
      "Ġcrystal": 4025,
      "Ġmen": 4026,
      "Ġmild": 4027,
      "Ġreind": 4028,
      "Ġart": 4029,
      "azz": 4030,
      "play": 4031,
      "bul": 4032,
      "Ġstarting": 4033,
      "reeze": 4034,
      "ucked": 4035,
      "Ġvisited": 4036,
      "ĠGrace": 4037,
      "Ġzoomed": 4038,
      "Ġrubber": 4039,
      "edy": 4040,
      "Ġtreasures": 4041,
      "Ġbasketball": 4042,
      "ooped": 4043,
      "Ġunhappy": 4044,
      "ĠOr": 4045,
      "Ġhoping": 4046,
      "Ġrolling": 4047,
      "Ġsprink": 4048,
      "ef": 4049,
      "Ġstrugg": 4050,
      "Ġappl": 4051,
      "Ġenergy": 4052,
      "ĠWould": 4053,
      "Ġgiven": 4054,
      "Ġcauliflower": 4055,
      "Jenny": 4056,
      "Ġtube": 4057,
      "Ġol": 4058,
      "Ġyacht": 4059,
      "sist": 4060,
      "Ġlaund": 4061,
      "Ġpilot": 4062,
      "Ġpipe": 4063,
      "aled": 4064,
      "Ġped": 4065,
      "Ġlaundry": 4066,
      "Ġunlock": 4067,
      "Ġpenguin": 4068,
      "Ġsaus": 4069,
      "icer": 4070,
      "Ġneighbour": 4071,
      "Ġcooler": 4072,
      "ĠBunny": 4073,
      "ĠJerry": 4074,
      "Ġhotel": 4075,
      "Grandma": 4076,
      "Ġframe": 4077,
      "Ġhadn": 4078,
      "Ġreindeer": 4079,
      "Ġflies": 4080,
      "ĠPaul": 4081,
      "Ġdive": 4082,
      "Ġdisplay": 4083,
      "Ġtricks": 4084,
      "Ġcups": 4085,
      "Ġbarks": 4086,
      "Ġkay": 4087,
      "Ġquit": 4088,
      "Ġbelt": 4089,
      "Ġshort": 4090,
      "aggie": 4091,
      "Ġthanks": 4092,
      "Ġbul": 4093,
      "Ġsweetheart": 4094,
      "Ġbur": 4095
    },
    "merges": [
      [
        "h",
        "e"
      ],
      [
        "Ġ",
        "t"
      ],
      [
        "Ġ",
        "a"
      ],
      [
        "Ġ",
        "s"
      ],
      [
        "Ġ",
        "w"
      ],
      [
        "n",
        "d"
      ],
      [
        "Ġt",
        "he"
      ],
      [
        "e",
        "d"
      ],
      [
        "Ġa",
        "nd"
      ],
      [
        "Ġt",
        "o"
      ],
      [
        "Ġ",
        "b"
      ],
      [
        "i",
        "n"
      ],
      [
        "Ġ",
        "h"
      ],
      [
        "Ġw",
        "a"
      ],
      [
        "r",
        "e"
      ],
      [
        "o",
        "u"
      ],
      [
        "Ġ",
        "f"
      ],
      [
        "i",
        "t"
      ],
      [
        "Ġ",
        "l"
      ],
      [
        "Ġ",
        "c"
      ],
      [
        "Ġ",
        "d"
      ],
      [
        "e",
        "r"
      ],
      [
        "Ġ",
        "he"
      ],
      [
        "Ġ",
        "m"
      ],
      [
        "Ġ",
        "p"
      ],
      [
        "Ġwa",
        "s"
      ],
      [
        "Ġ",
        "T"
      ],
      [
        "o",
        "m"
      ],
      [
        "Ġ",
        "o"
      ],
      [
        "a",
        "y"
      ],
      [
        "a",
        "r"
      ],
      [
        "i",
        "s"
      ],
      [
        "in",
        "g"
      ],
      [
        "i",
        "l"
      ],
      [
        "Ġ",
        "g"
      ],
      [
        "i",
        "d"
      ],
      [
        "a",
        "t"
      ],
      [
        "e",
        "n"
      ],
      [
        "Ġ",
        "n"
      ],
      [
        "Ġs",
        "a"
      ],
      [
        "Ġh",
        "a"
      ],
      [
        "ĠT",
        "he"
      ],
      [
        "Ġ",
        "S"
      ],
      [
        "a",
        "n"
      ],
      [
        "i",
        "m"
      ],
      [
        "o",
        "r"
      ],
      [
        "o",
        "n"
      ],
      [
        "Ġ",
        "it"
      ],
      [
        "Ġt",
        "h"
      ],
      [
        "l",
        "l"
      ],
      [
        "l",
        "e"
      ],
      [
        "Ġ",
        "H"
      ],
      [
        "o",
        "t"
      ],
      [
        "Ġhe",
        "r"
      ],
      [
        "e",
        "t"
      ],
      [
        "i",
        "r"
      ],
      [
        "ĠS",
        "he"
      ],
      [
        "e",
        "s"
      ],
      [
        "ĠH",
        "e"
      ],
      [
        "Ġ",
        "in"
      ],
      [
        "v",
        "er"
      ],
      [
        "ĠThe",
        "y"
      ],
      [
        "u",
        "t"
      ],
      [
        "o",
        "w"
      ],
      [
        "c",
        "k"
      ],
      [
        "Ġ",
        "e"
      ],
      [
        "Ġ",
        "u"
      ],
      [
        "Ġ",
        "y"
      ],
      [
        "l",
        "d"
      ],
      [
        "o",
        "o"
      ],
      [
        "il",
        "y"
      ],
      [
        "Ġsa",
        "id"
      ],
      [
        "i",
        "g"
      ],
      [
        "Ġ",
        "r"
      ],
      [
        "Ġb",
        "e"
      ],
      [
        "Ġ",
        "\""
      ],
      [
        "a",
        "m"
      ],
      [
        "Ġ",
        "I"
      ],
      [
        "Ġs",
        "t"
      ],
      [
        "k",
        "e"
      ],
      [
        "c",
        "e"
      ],
      [
        "v",
        "e"
      ],
      [
        "it",
        "h"
      ],
      [
        "p",
        "p"
      ],
      [
        "Ġs",
        "he"
      ],
      [
        "L",
        "ily"
      ],
      [
        "Ġw",
        "ith"
      ],
      [
        "O",
        "n"
      ],
      [
        "Ġo",
        "n"
      ],
      [
        "Ġy",
        "ou"
      ],
      [
        "k",
        "ed"
      ],
      [
        "Ġo",
        "f"
      ],
      [
        "r",
        "i"
      ],
      [
        "Ġp",
        "l"
      ],
      [
        "n",
        "t"
      ],
      [
        "Ġh",
        "is"
      ],
      [
        "a",
        "d"
      ],
      [
        "Ġs",
        "o"
      ],
      [
        "ver",
        "y"
      ],
      [
        "Ġd",
        "ay"
      ],
      [
        "Ġth",
        "at"
      ],
      [
        "Ġu",
        "p"
      ],
      [
        "Ġ",
        "Lily"
      ],
      [
        "Ġpl",
        "ay"
      ],
      [
        "Ġha",
        "d"
      ],
      [
        "Ġthe",
        "y"
      ],
      [
        "s",
        "t"
      ],
      [
        "Ġw",
        "e"
      ],
      [
        "Ġm",
        "om"
      ],
      [
        "Ġ",
        "B"
      ],
      [
        "Ġf",
        "or"
      ],
      [
        "e",
        "l"
      ],
      [
        "u",
        "n"
      ],
      [
        "ou",
        "ld"
      ],
      [
        "'",
        "s"
      ],
      [
        "m",
        "y"
      ],
      [
        "Ġl",
        "i"
      ],
      [
        "T",
        "he"
      ],
      [
        "c",
        "h"
      ],
      [
        "Ġha",
        "pp"
      ],
      [
        "Ġwa",
        "nt"
      ],
      [
        "en",
        "t"
      ],
      [
        "Ġs",
        "h"
      ],
      [
        "it",
        "t"
      ],
      [
        "he",
        "r"
      ],
      [
        "ou",
        "t"
      ],
      [
        "Ġn",
        "ot"
      ],
      [
        "Ġd",
        "o"
      ],
      [
        "om",
        "e"
      ],
      [
        "s",
        "e"
      ],
      [
        "Ġ",
        "very"
      ],
      [
        "l",
        "y"
      ],
      [
        "e",
        "nd"
      ],
      [
        "a",
        "ll"
      ],
      [
        "ou",
        "nd"
      ],
      [
        "Ġw",
        "h"
      ],
      [
        "Ġ",
        "k"
      ],
      [
        "im",
        "e"
      ],
      [
        "itt",
        "le"
      ],
      [
        "Ġt",
        "ime"
      ],
      [
        "a",
        "l"
      ],
      [
        "Ġl",
        "ittle"
      ],
      [
        "Ġn",
        "e"
      ],
      [
        "Ġ",
        "M"
      ],
      [
        "Ġthe",
        "re"
      ],
      [
        "h",
        "t"
      ],
      [
        "Ġ",
        "is"
      ],
      [
        "Ġhapp",
        "y"
      ],
      [
        "Ġb",
        "ig"
      ],
      [
        "ĠI",
        "t"
      ],
      [
        "Ġ",
        "re"
      ],
      [
        "Ġs",
        "m"
      ],
      [
        "Ġb",
        "ut"
      ],
      [
        "Ġsa",
        "w"
      ],
      [
        "Ġa",
        "n"
      ],
      [
        "r",
        "a"
      ],
      [
        "r",
        "y"
      ],
      [
        "ri",
        "end"
      ],
      [
        ".",
        "\""
      ],
      [
        "Ġ",
        "Ċ"
      ],
      [
        "Ġf",
        "riend"
      ],
      [
        "Ġa",
        "s"
      ],
      [
        "a",
        "ck"
      ],
      [
        "On",
        "e"
      ],
      [
        "id",
        "e"
      ],
      [
        "a",
        "ke"
      ],
      [
        "u",
        "g"
      ],
      [
        "'",
        "t"
      ],
      [
        "!",
        "\""
      ],
      [
        "Ġl",
        "oo"
      ],
      [
        "Ġwe",
        "re"
      ],
      [
        "t",
        "er"
      ],
      [
        "v",
        "ed"
      ],
      [
        "Ġl",
        "o"
      ],
      [
        "o",
        "re"
      ],
      [
        "On",
        "ce"
      ],
      [
        "Ġs",
        "e"
      ],
      [
        "Ġto",
        "o"
      ],
      [
        "Ġh",
        "im"
      ],
      [
        "Ġb",
        "o"
      ],
      [
        "Ġg",
        "o"
      ],
      [
        "Ġa",
        "re"
      ],
      [
        "e",
        "c"
      ],
      [
        "ĠT",
        "im"
      ],
      [
        "Ġ",
        "j"
      ],
      [
        "Ġwant",
        "ed"
      ],
      [
        "ar",
        "d"
      ],
      [
        "il",
        "l"
      ],
      [
        "ir",
        "l"
      ],
      [
        "Ġthe",
        "m"
      ],
      [
        "Ġup",
        "on"
      ],
      [
        "Ġg",
        "irl"
      ],
      [
        "Ġthe",
        "ir"
      ],
      [
        "Ġ",
        "out"
      ],
      [
        "Ġa",
        "t"
      ],
      [
        "i",
        "nd"
      ],
      [
        "u",
        "r"
      ],
      [
        "Ġd",
        "id"
      ],
      [
        "w",
        "ay"
      ],
      [
        "f",
        "u"
      ],
      [
        "Ġs",
        "p"
      ],
      [
        "Ġ",
        "A"
      ],
      [
        "Ġc",
        "ould"
      ],
      [
        "Ġsm",
        "il"
      ],
      [
        "he",
        "n"
      ],
      [
        "Ġha",
        "ve"
      ],
      [
        "a",
        "in"
      ],
      [
        "he",
        "d"
      ],
      [
        "ar",
        "t"
      ],
      [
        "ĠB",
        "en"
      ],
      [
        "r",
        "om"
      ],
      [
        "Ġe",
        "x"
      ],
      [
        "Ġc",
        "an"
      ],
      [
        "Ġw",
        "ent"
      ],
      [
        "i",
        "c"
      ],
      [
        "Ġa",
        "r"
      ],
      [
        "l",
        "p"
      ],
      [
        "oo",
        "d"
      ],
      [
        "fu",
        "l"
      ],
      [
        "Ġfriend",
        "s"
      ],
      [
        "?",
        "\""
      ],
      [
        "h",
        "ing"
      ],
      [
        "Ġn",
        "am"
      ],
      [
        "Ġk",
        "n"
      ],
      [
        "Ġ",
        "J"
      ],
      [
        "ig",
        "ht"
      ],
      [
        "Ġhe",
        "lp"
      ],
      [
        "Ġs",
        "ay"
      ],
      [
        "Ġa",
        "ll"
      ],
      [
        "on",
        "e"
      ],
      [
        "u",
        "m"
      ],
      [
        "ar",
        "k"
      ],
      [
        "Ġb",
        "ack"
      ],
      [
        "Y",
        "ou"
      ],
      [
        "Ġf",
        "un"
      ],
      [
        "ĠT",
        "om"
      ],
      [
        "Ġc",
        "l"
      ],
      [
        "a",
        "re"
      ],
      [
        "Ġn",
        "o"
      ],
      [
        "Ġl",
        "e"
      ],
      [
        "o",
        "p"
      ],
      [
        "Ġs",
        "c"
      ],
      [
        "Ġnam",
        "ed"
      ],
      [
        "Ġa",
        "l"
      ],
      [
        "el",
        "t"
      ],
      [
        "ou",
        "g"
      ],
      [
        "Ġm",
        "an"
      ],
      [
        "Ġlo",
        "ved"
      ],
      [
        "s",
        "ide"
      ],
      [
        "Ġsmil",
        "ed"
      ],
      [
        "Ġ",
        "One"
      ],
      [
        "Ġto",
        "y"
      ],
      [
        "Ġli",
        "ke"
      ],
      [
        "i",
        "ck"
      ],
      [
        "Ġf",
        "elt"
      ],
      [
        "Ġas",
        "ked"
      ],
      [
        "Ġf",
        "e"
      ],
      [
        "Ġs",
        "ome"
      ],
      [
        "Ġse",
        "e"
      ],
      [
        "Ġloo",
        "ked"
      ],
      [
        "Ġm",
        "e"
      ],
      [
        "am",
        "e"
      ],
      [
        "Ġar",
        "ound"
      ],
      [
        "Ġr",
        "o"
      ],
      [
        "ĠTim",
        "my"
      ],
      [
        "om",
        "et"
      ],
      [
        "Ġ",
        "W"
      ],
      [
        "u",
        "re"
      ],
      [
        "Ġb",
        "r"
      ],
      [
        "Ġb",
        "ir"
      ],
      [
        "g",
        "et"
      ],
      [
        "i",
        "ce"
      ],
      [
        "Ġbo",
        "y"
      ],
      [
        "Ġw",
        "ould"
      ],
      [
        "on",
        "g"
      ],
      [
        "Ġst",
        "art"
      ],
      [
        "a",
        "s"
      ],
      [
        "Ġbir",
        "d"
      ],
      [
        "Ġs",
        "omet"
      ],
      [
        "ing",
        "s"
      ],
      [
        "Ġf",
        "a"
      ],
      [
        "ad",
        "e"
      ],
      [
        "Ġm",
        "ake"
      ],
      [
        "Ġa",
        "g"
      ],
      [
        "Ġwh",
        "at"
      ],
      [
        "Ġw",
        "or"
      ],
      [
        "d",
        "d"
      ],
      [
        "Ġ",
        "You"
      ],
      [
        ",",
        "\""
      ],
      [
        "Ġsay",
        "s"
      ],
      [
        "ĠB",
        "ut"
      ],
      [
        "k",
        "ing"
      ],
      [
        "Ġr",
        "an"
      ],
      [
        "Ġa",
        "way"
      ],
      [
        "ow",
        "n"
      ],
      [
        "get",
        "her"
      ],
      [
        "Ġt",
        "re"
      ],
      [
        "Ã",
        "¢"
      ],
      [
        "â",
        "Ĥ"
      ],
      [
        "âĤ",
        "¬"
      ],
      [
        "a",
        "g"
      ],
      [
        "ar",
        "ed"
      ],
      [
        "i",
        "e"
      ],
      [
        "ou",
        "d"
      ],
      [
        "Ġm",
        "ade"
      ],
      [
        "Ġstart",
        "ed"
      ],
      [
        "i",
        "f"
      ],
      [
        "Ġc",
        "ar"
      ],
      [
        "Ġto",
        "gether"
      ],
      [
        "Ġsomet",
        "hing"
      ],
      [
        "Ġc",
        "o"
      ],
      [
        "t",
        "her"
      ],
      [
        "Ġp",
        "ark"
      ],
      [
        "Ġsa",
        "d"
      ],
      [
        "Ġo",
        "ther"
      ],
      [
        "it",
        "ed"
      ],
      [
        "Ġp",
        "ut"
      ],
      [
        "Ġne",
        "w"
      ],
      [
        "Ġf",
        "rom"
      ],
      [
        "e",
        "ll"
      ],
      [
        "Ġh",
        "ug"
      ],
      [
        "Ġp",
        "r"
      ],
      [
        "b",
        "le"
      ],
      [
        "Ġag",
        "ain"
      ],
      [
        "oo",
        "k"
      ],
      [
        "Ġex",
        "c"
      ],
      [
        "a",
        "ch"
      ],
      [
        "Ġ",
        "L"
      ],
      [
        "Ġg",
        "ood"
      ],
      [
        "Ġh",
        "ome"
      ],
      [
        "Ġl",
        "a"
      ],
      [
        "Ġm",
        "u"
      ],
      [
        "s",
        "s"
      ],
      [
        "Ġw",
        "hen"
      ],
      [
        "Ġf",
        "l"
      ],
      [
        "ri",
        "ed"
      ],
      [
        "e",
        "p"
      ],
      [
        "Ġwh",
        "o"
      ],
      [
        "es",
        "t"
      ],
      [
        "Ġthe",
        "n"
      ],
      [
        "Ġf",
        "ound"
      ],
      [
        "Ġc",
        "h"
      ],
      [
        "Ġd",
        "ec"
      ],
      [
        "pp",
        "ed"
      ],
      [
        "h",
        "at"
      ],
      [
        "Ġg",
        "et"
      ],
      [
        "Ġwa",
        "l"
      ],
      [
        "Ġplay",
        "ing"
      ],
      [
        "q",
        "u"
      ],
      [
        "Ġs",
        "w"
      ],
      [
        "oug",
        "ht"
      ],
      [
        "n",
        "n"
      ],
      [
        "Ġli",
        "ked"
      ],
      [
        "u",
        "ck"
      ],
      [
        "Ġth",
        "ings"
      ],
      [
        "Ġ",
        "E"
      ],
      [
        "all",
        "y"
      ],
      [
        "p",
        "l"
      ],
      [
        "ou",
        "s"
      ],
      [
        "Ġg",
        "ot"
      ],
      [
        "Ġb",
        "l"
      ],
      [
        "Ġexc",
        "ited"
      ],
      [
        "r",
        "o"
      ],
      [
        "id",
        "ed"
      ],
      [
        "a",
        "ve"
      ],
      [
        "Ġc",
        "ame"
      ],
      [
        "ar",
        "a"
      ],
      [
        "Ġe",
        "very"
      ],
      [
        "Ġdec",
        "ided"
      ],
      [
        "Ġyou",
        "r"
      ],
      [
        "Ġdo",
        "g"
      ],
      [
        "ĠM",
        "om"
      ],
      [
        "a",
        "x"
      ],
      [
        "Ġsc",
        "ared"
      ],
      [
        "Ġ",
        "D"
      ],
      [
        "Ġon",
        "e"
      ],
      [
        "Ġd",
        "own"
      ],
      [
        "u",
        "st"
      ],
      [
        "Ġ",
        "v"
      ],
      [
        "Ġf",
        "ind"
      ],
      [
        "Ġc",
        "are"
      ],
      [
        "The",
        "y"
      ],
      [
        "nn",
        "a"
      ],
      [
        "ou",
        "se"
      ],
      [
        "a",
        "p"
      ],
      [
        "Ġbe",
        "c"
      ],
      [
        "is",
        "t"
      ],
      [
        "Ġth",
        "an"
      ],
      [
        "n",
        "y"
      ],
      [
        "Ġfe",
        "el"
      ],
      [
        "u",
        "e"
      ],
      [
        "Ġd",
        "ad"
      ],
      [
        "Ġa",
        "b"
      ],
      [
        "Ġw",
        "ill"
      ],
      [
        "Ġm",
        "y"
      ],
      [
        "ar",
        "n"
      ],
      [
        "Ġloo",
        "k"
      ],
      [
        "u",
        "dd"
      ],
      [
        "ou",
        "r"
      ],
      [
        "Ġg",
        "r"
      ],
      [
        "er",
        "s"
      ],
      [
        "Ġ",
        "ke"
      ],
      [
        "Ġg",
        "ra"
      ],
      [
        "u",
        "s"
      ],
      [
        "Ġdid",
        "n"
      ],
      [
        "way",
        "s"
      ],
      [
        "es",
        "s"
      ],
      [
        "Ġp",
        "o"
      ],
      [
        "Ġtoy",
        "s"
      ],
      [
        "Ġtoo",
        "k"
      ],
      [
        "f",
        "e"
      ],
      [
        "nd",
        "er"
      ],
      [
        "Ġab",
        "out"
      ],
      [
        "Ġb",
        "all"
      ],
      [
        "Ġal",
        "ways"
      ],
      [
        "Ġl",
        "ot"
      ],
      [
        "Ġmom",
        "my"
      ],
      [
        "ĠS",
        "am"
      ],
      [
        "an",
        "t"
      ],
      [
        "Ġkn",
        "e"
      ],
      [
        "b",
        "b"
      ],
      [
        "Ġtre",
        "e"
      ],
      [
        "is",
        "e"
      ],
      [
        "Ġ",
        "F"
      ],
      [
        "Ġout",
        "side"
      ],
      [
        "Ġth",
        "ought"
      ],
      [
        "it",
        "e"
      ],
      [
        "Ġm",
        "ore"
      ],
      [
        "Ġt",
        "a"
      ],
      [
        "en",
        "ed"
      ],
      [
        "Ġle",
        "arn"
      ],
      [
        "re",
        "t"
      ],
      [
        "Ġh",
        "o"
      ],
      [
        "c",
        "hed"
      ],
      [
        "Ġkn",
        "ow"
      ],
      [
        "ec",
        "i"
      ],
      [
        "Ġin",
        "t"
      ],
      [
        "g",
        "ed"
      ],
      [
        "Ġs",
        "or"
      ],
      [
        "Ġc",
        "at"
      ],
      [
        "Ġla",
        "ug"
      ],
      [
        "Ġt",
        "ake"
      ],
      [
        "Ġo",
        "ld"
      ],
      [
        "i",
        "ve"
      ],
      [
        "i",
        "a"
      ],
      [
        "ĠM",
        "ax"
      ],
      [
        "Ġsp",
        "eci"
      ],
      [
        "Ġspeci",
        "al"
      ],
      [
        "Ġkne",
        "w"
      ],
      [
        "Ġan",
        "y"
      ],
      [
        "Ġp",
        "e"
      ],
      [
        "udd",
        "en"
      ],
      [
        "f",
        "ter"
      ],
      [
        "Ġh",
        "ow"
      ],
      [
        "Ġsor",
        "ry"
      ],
      [
        "Ġt",
        "r"
      ],
      [
        "m",
        "a"
      ],
      [
        "in",
        "k"
      ],
      [
        "B",
        "ut"
      ],
      [
        "Ġsh",
        "ow"
      ],
      [
        "is",
        "h"
      ],
      [
        "udden",
        "ly"
      ],
      [
        "Ġr",
        "un"
      ],
      [
        "a",
        "u"
      ],
      [
        "Ġs",
        "l"
      ],
      [
        "Ġmu",
        "ch"
      ],
      [
        "Ġt",
        "w"
      ],
      [
        "Ġha",
        "nd"
      ],
      [
        "a",
        "nd"
      ],
      [
        "Ġo",
        "r"
      ],
      [
        "Ġh",
        "ouse"
      ],
      [
        "Ġo",
        "p"
      ],
      [
        "Ġm",
        "o"
      ],
      [
        "Ġwa",
        "ter"
      ],
      [
        "Ġs",
        "k"
      ],
      [
        "v",
        "en"
      ],
      [
        "Ġt",
        "ried"
      ],
      [
        "Ġint",
        "o"
      ],
      [
        "Ġs",
        "un"
      ],
      [
        "an",
        "k"
      ],
      [
        "Ġin",
        "side"
      ],
      [
        "T",
        "om"
      ],
      [
        "Ġcl",
        "o"
      ],
      [
        "at",
        "e"
      ],
      [
        "Ġto",
        "ld"
      ],
      [
        "Ġg",
        "ave"
      ],
      [
        "um",
        "p"
      ],
      [
        "ĠS",
        "ara"
      ],
      [
        "t",
        "y"
      ],
      [
        "Ġpr",
        "oud"
      ],
      [
        "Ġe",
        "ach"
      ],
      [
        "Ġ",
        "qu"
      ],
      [
        "Ġ",
        "en"
      ],
      [
        "ĠW",
        "e"
      ],
      [
        "Ġ",
        "if"
      ],
      [
        "Ġo",
        "ver"
      ],
      [
        "Ġro",
        "om"
      ],
      [
        "Ġcould",
        "n"
      ],
      [
        "Ġhe",
        "ard"
      ],
      [
        "a",
        "ce"
      ],
      [
        "Ġne",
        "ver"
      ],
      [
        "Ġe",
        "at"
      ],
      [
        "Ġth",
        "is"
      ],
      [
        "ĠA",
        "nna"
      ],
      [
        "Ġp",
        "ret"
      ],
      [
        "ot",
        "her"
      ],
      [
        "d",
        "y"
      ],
      [
        "ĠE",
        "very"
      ],
      [
        "au",
        "se"
      ],
      [
        "b",
        "y"
      ],
      [
        "a",
        "k"
      ],
      [
        "Ġplay",
        "ed"
      ],
      [
        "Ġp",
        "ick"
      ],
      [
        "i",
        "on"
      ],
      [
        "M",
        "om"
      ],
      [
        "et",
        "ter"
      ],
      [
        "Ġhug",
        "ged"
      ],
      [
        "Ġex",
        "pl"
      ],
      [
        "he",
        "re"
      ],
      [
        "g",
        "e"
      ],
      [
        "Ġc",
        "om"
      ],
      [
        "Ġg",
        "re"
      ],
      [
        "Ġj",
        "ust"
      ],
      [
        "Ġn",
        "ice"
      ],
      [
        "Ġbo",
        "x"
      ],
      [
        "Ġman",
        "y"
      ],
      [
        "Ġne",
        "ed"
      ],
      [
        "Ġwa",
        "t"
      ],
      [
        "ot",
        "h"
      ],
      [
        "Ġst",
        "r"
      ],
      [
        "s",
        "ed"
      ],
      [
        "Ġbec",
        "ause"
      ],
      [
        "Ġof",
        "f"
      ],
      [
        "il",
        "e"
      ],
      [
        "'",
        "m"
      ],
      [
        "g",
        "ry"
      ],
      [
        "Ġsm",
        "all"
      ],
      [
        "i",
        "z"
      ],
      [
        "Ġb",
        "u"
      ],
      [
        "v",
        "ing"
      ],
      [
        "Ġl",
        "ong"
      ],
      [
        "Ġj",
        "o"
      ],
      [
        "Ġs",
        "n"
      ],
      [
        "in",
        "e"
      ],
      [
        "Ġf",
        "o"
      ],
      [
        "im",
        "al"
      ],
      [
        "Ġan",
        "imal"
      ],
      [
        "Ġbe",
        "ar"
      ],
      [
        "Ġt",
        "ry"
      ],
      [
        "oug",
        "h"
      ],
      [
        "u",
        "c"
      ],
      [
        "or",
        "t"
      ],
      [
        "ur",
        "t"
      ],
      [
        "Ġlearn",
        "ed"
      ],
      [
        "Ġu",
        "nt"
      ],
      [
        "s",
        "el"
      ],
      [
        "il",
        "d"
      ],
      [
        "Ġlo",
        "ve"
      ],
      [
        "Ġunt",
        "il"
      ],
      [
        "ĠM",
        "ia"
      ],
      [
        "Ġk",
        "ind"
      ],
      [
        "f",
        "t"
      ],
      [
        "Ġb",
        "etter"
      ],
      [
        "Ġfl",
        "ow"
      ],
      [
        "ĠJ",
        "ack"
      ],
      [
        "H",
        "e"
      ],
      [
        "ĠA",
        "nd"
      ],
      [
        "Ġt",
        "e"
      ],
      [
        "Ġe",
        "nd"
      ],
      [
        "Ġ",
        "im"
      ],
      [
        "ur",
        "n"
      ],
      [
        "Ġd",
        "on"
      ],
      [
        "v",
        "es"
      ],
      [
        "Ġc",
        "le"
      ],
      [
        "Ġp",
        "u"
      ],
      [
        "Ġc",
        "all"
      ],
      [
        "Ġb",
        "est"
      ],
      [
        "ad",
        "y"
      ],
      [
        "ar",
        "s"
      ],
      [
        "re",
        "am"
      ],
      [
        "a",
        "ut"
      ],
      [
        "Ġa",
        "d"
      ],
      [
        "Y",
        "es"
      ],
      [
        "v",
        "ent"
      ],
      [
        "Ġfa",
        "st"
      ],
      [
        "Ġcare",
        "ful"
      ],
      [
        "ur",
        "p"
      ],
      [
        "ard",
        "en"
      ],
      [
        "Ġg",
        "arden"
      ],
      [
        "Ġ",
        "C"
      ],
      [
        "ĠJ",
        "o"
      ],
      [
        "Ġbe",
        "aut"
      ],
      [
        "Ġf",
        "i"
      ],
      [
        "T",
        "h"
      ],
      [
        "b",
        "er"
      ],
      [
        "Ġsk",
        "y"
      ],
      [
        "Ġthan",
        "ked"
      ],
      [
        "Ġb",
        "ra"
      ],
      [
        "Ġj",
        "ump"
      ],
      [
        "Ġe",
        "ven"
      ],
      [
        "i",
        "es"
      ],
      [
        "Ġl",
        "oud"
      ],
      [
        "a",
        "se"
      ],
      [
        "p",
        "t"
      ],
      [
        "Ġb",
        "y"
      ],
      [
        "ĠS",
        "o"
      ],
      [
        "Ġlaug",
        "hed"
      ],
      [
        "e",
        "m"
      ],
      [
        "ĠH",
        "er"
      ],
      [
        "Ġc",
        "he"
      ],
      [
        "in",
        "y"
      ],
      [
        "w",
        "n"
      ],
      [
        "sel",
        "f"
      ],
      [
        "Ġg",
        "l"
      ],
      [
        "ll",
        "y"
      ],
      [
        "Ġl",
        "ist"
      ],
      [
        "I",
        "t"
      ],
      [
        "Ġc",
        "ome"
      ],
      [
        "Ġbeaut",
        "i"
      ],
      [
        "Ġh",
        "ard"
      ],
      [
        "Ġst",
        "ill"
      ],
      [
        "Ġh",
        "urt"
      ],
      [
        "le",
        "w"
      ],
      [
        "Ġbeauti",
        "ful"
      ],
      [
        "Ġanimal",
        "s"
      ],
      [
        "Ġlot",
        "s"
      ],
      [
        "Ġf",
        "am"
      ],
      [
        "Ġwa",
        "y"
      ],
      [
        "Ġw",
        "o"
      ],
      [
        "Å",
        "ĵ"
      ],
      [
        "Ġr",
        "a"
      ],
      [
        "Ġu",
        "nder"
      ],
      [
        "ĠThe",
        "n"
      ],
      [
        "he",
        "s"
      ],
      [
        "Ġl",
        "et"
      ],
      [
        "Ġst",
        "ay"
      ],
      [
        "b",
        "e"
      ],
      [
        "ĠF",
        "rom"
      ],
      [
        "ec",
        "t"
      ],
      [
        "Ġb",
        "ad"
      ],
      [
        "n",
        "ing"
      ],
      [
        "c",
        "t"
      ],
      [
        "Ġsa",
        "fe"
      ],
      [
        "Ġco",
        "l"
      ],
      [
        "oo",
        "l"
      ],
      [
        "Ġc",
        "u"
      ],
      [
        "a",
        "st"
      ],
      [
        "Ġb",
        "oth"
      ],
      [
        "ĠH",
        "is"
      ],
      [
        "op",
        "le"
      ],
      [
        "o",
        "ck"
      ],
      [
        "k",
        "ay"
      ],
      [
        "Ġre",
        "m"
      ],
      [
        "Ġb",
        "ook"
      ],
      [
        "T",
        "im"
      ],
      [
        "Ġan",
        "gry"
      ],
      [
        "Ġli",
        "ved"
      ],
      [
        "is",
        "hed"
      ],
      [
        "Ġit",
        "s"
      ],
      [
        "Ġim",
        "p"
      ],
      [
        "re",
        "e"
      ],
      [
        "re",
        "ss"
      ],
      [
        "Ġtw",
        "o"
      ],
      [
        "Ġ",
        "Ã¢"
      ],
      [
        "Ġpe",
        "ople"
      ],
      [
        "an",
        "e"
      ],
      [
        "Ġbra",
        "ve"
      ],
      [
        "Ġfam",
        "ily"
      ],
      [
        "Ġsh",
        "ould"
      ],
      [
        "N",
        "o"
      ],
      [
        "Ġr",
        "ed"
      ],
      [
        "urp",
        "r"
      ],
      [
        "ig",
        "h"
      ],
      [
        "Ġwal",
        "ked"
      ],
      [
        "Ġs",
        "urpr"
      ],
      [
        "Ġf",
        "lew"
      ],
      [
        "Ġf",
        "in"
      ],
      [
        "Ġst",
        "or"
      ],
      [
        "Ġsh",
        "are"
      ],
      [
        "Ġd",
        "an"
      ],
      [
        "Ġso",
        "on"
      ],
      [
        "uc",
        "y"
      ],
      [
        "W",
        "hen"
      ],
      [
        "Ġf",
        "ly"
      ],
      [
        "o",
        "b"
      ],
      [
        "x",
        "t"
      ],
      [
        "Ġp",
        "ic"
      ],
      [
        "Ġdo",
        "ll"
      ],
      [
        "f",
        "ore"
      ],
      [
        "l",
        "ed"
      ],
      [
        "Ġke",
        "pt"
      ],
      [
        "Ġcall",
        "ed"
      ],
      [
        "i",
        "p"
      ],
      [
        "Ġf",
        "ore"
      ],
      [
        "B",
        "en"
      ],
      [
        "L",
        "et"
      ],
      [
        "Ġro",
        "ck"
      ],
      [
        "Ġcle",
        "an"
      ],
      [
        "Ġpret",
        "ty"
      ],
      [
        "is",
        "ed"
      ],
      [
        "Ġdo",
        "or"
      ],
      [
        "dd",
        "ed"
      ],
      [
        "Ġsh",
        "iny"
      ],
      [
        "Ġ",
        "P"
      ],
      [
        "ĠW",
        "hen"
      ],
      [
        "Ġgo",
        "ing"
      ],
      [
        "Ġke",
        "ep"
      ],
      [
        "Ġd",
        "ra"
      ],
      [
        "h",
        "n"
      ],
      [
        "Ġno",
        "ise"
      ],
      [
        "Ġn",
        "ow"
      ],
      [
        "Ġre",
        "al"
      ],
      [
        "Ġw",
        "ind"
      ],
      [
        "Ġop",
        "ened"
      ],
      [
        "Ġad",
        "vent"
      ],
      [
        "Ġt",
        "urn"
      ],
      [
        "um",
        "my"
      ],
      [
        "Ġ",
        "ide"
      ],
      [
        "ar",
        "y"
      ],
      [
        "s",
        "o"
      ],
      [
        "Ġc",
        "ry"
      ],
      [
        "Ġbe",
        "fore"
      ],
      [
        "Ġc",
        "on"
      ],
      [
        "ag",
        "e"
      ],
      [
        "Ġgr",
        "ound"
      ],
      [
        "Ġal",
        "so"
      ],
      [
        "Ġst",
        "o"
      ],
      [
        "le",
        "s"
      ],
      [
        "âĤ¬",
        "â"
      ],
      [
        "il",
        "ly"
      ],
      [
        "o",
        "on"
      ],
      [
        "Ġe",
        "y"
      ],
      [
        "Ġcol",
        "or"
      ],
      [
        "Ġexpl",
        "ore"
      ],
      [
        "i",
        "ed"
      ],
      [
        "Ġf",
        "ar"
      ],
      [
        "Ġha",
        "s"
      ],
      [
        "Ġide",
        "a"
      ],
      [
        "Ġf",
        "r"
      ],
      [
        "W",
        "hat"
      ],
      [
        "k",
        "es"
      ],
      [
        "im",
        "b"
      ],
      [
        "Ġwa",
        "r"
      ],
      [
        "t",
        "h"
      ],
      [
        "t",
        "ure"
      ],
      [
        "Ġu",
        "n"
      ],
      [
        "t",
        "hing"
      ],
      [
        "Ġne",
        "xt"
      ],
      [
        "Ġpick",
        "ed"
      ],
      [
        "Ġcl",
        "imb"
      ],
      [
        "u",
        "ch"
      ],
      [
        "Ġno",
        "dded"
      ],
      [
        "T",
        "hat"
      ],
      [
        "o",
        "y"
      ],
      [
        "ay",
        "be"
      ],
      [
        "Ġsmil",
        "e"
      ],
      [
        "Ġth",
        "r"
      ],
      [
        "Ġfeel",
        "ing"
      ],
      [
        "Ġtr",
        "uck"
      ],
      [
        "Ġwh",
        "ile"
      ],
      [
        "Ġb",
        "ed"
      ],
      [
        "ĠD",
        "ad"
      ],
      [
        "Ġwal",
        "king"
      ],
      [
        "Ħ",
        "¢"
      ],
      [
        "âĤ¬â",
        "Ħ¢"
      ],
      [
        "e",
        "et"
      ],
      [
        "Ġw",
        "r"
      ],
      [
        "Ġadvent",
        "ure"
      ],
      [
        "Th",
        "ank"
      ],
      [
        "g",
        "er"
      ],
      [
        "ĠL",
        "ucy"
      ],
      [
        "Ġpic",
        "ture"
      ],
      [
        "a",
        "c"
      ],
      [
        "Ġ",
        "G"
      ],
      [
        "Ġbe",
        "ing"
      ],
      [
        "Ġth",
        "ink"
      ],
      [
        "Ġg",
        "ive"
      ],
      [
        "Ġf",
        "ood"
      ],
      [
        "Ġm",
        "a"
      ],
      [
        "f",
        "f"
      ],
      [
        "ic",
        "ed"
      ],
      [
        "Ġt",
        "ra"
      ],
      [
        "Ġd",
        "if"
      ],
      [
        "Ġb",
        "re"
      ],
      [
        "p",
        "ot"
      ],
      [
        "j",
        "oy"
      ],
      [
        "Ġbr",
        "o"
      ],
      [
        "Ġto",
        "w"
      ],
      [
        "t",
        "ed"
      ],
      [
        "i",
        "ous"
      ],
      [
        "Ġlist",
        "en"
      ],
      [
        "Ġclo",
        "s"
      ],
      [
        "Ġey",
        "es"
      ],
      [
        "Ġwa",
        "it"
      ],
      [
        "ug",
        "ht"
      ],
      [
        "Ġo",
        "wn"
      ],
      [
        "Ġf",
        "ish"
      ],
      [
        "Ġsto",
        "pped"
      ],
      [
        "Ġa",
        "fter"
      ],
      [
        "Ġloo",
        "king"
      ],
      [
        "t",
        "ing"
      ],
      [
        "Ġflow",
        "ers"
      ],
      [
        "em",
        "ber"
      ],
      [
        "Ġd",
        "el"
      ],
      [
        "Ġwal",
        "k"
      ],
      [
        "Ġhand",
        "s"
      ],
      [
        "Ġbl",
        "ue"
      ],
      [
        "iz",
        "ed"
      ],
      [
        "S",
        "he"
      ],
      [
        "Ġsl",
        "ide"
      ],
      [
        "Ġsh",
        "out"
      ],
      [
        "Ġre",
        "pl"
      ],
      [
        "Ġgre",
        "at"
      ],
      [
        "Ġe",
        "ver"
      ],
      [
        "Ġme",
        "an"
      ],
      [
        "Ġen",
        "joy"
      ],
      [
        "Ġv",
        "o"
      ],
      [
        "Ġhe",
        "ad"
      ],
      [
        "ir",
        "st"
      ],
      [
        "il",
        "a"
      ],
      [
        "Ġr",
        "ain"
      ],
      [
        "ĠS",
        "uddenly"
      ],
      [
        "S",
        "uddenly"
      ],
      [
        "Ġne",
        "ar"
      ],
      [
        "Ġnot",
        "iced"
      ],
      [
        "Ġd",
        "is"
      ],
      [
        "Ġfore",
        "st"
      ],
      [
        "Ġu",
        "s"
      ],
      [
        "Ġas",
        "k"
      ],
      [
        "Ġimp",
        "ort"
      ],
      [
        "Ġqu",
        "ick"
      ],
      [
        "Ġrem",
        "ember"
      ],
      [
        "bb",
        "it"
      ],
      [
        "Ġs",
        "ound"
      ],
      [
        "Ġa",
        "pp"
      ],
      [
        "ll",
        "ow"
      ],
      [
        "Ġo",
        "kay"
      ],
      [
        "Ġd",
        "e"
      ],
      [
        "ma",
        "z"
      ],
      [
        "Ġwor",
        "k"
      ],
      [
        "Ġshow",
        "ed"
      ],
      [
        "Ġwo",
        "nder"
      ],
      [
        "Ġa",
        "maz"
      ],
      [
        "Ġt",
        "al"
      ],
      [
        "le",
        "ase"
      ],
      [
        "Ġst",
        "ick"
      ],
      [
        "Ġwat",
        "ch"
      ],
      [
        "Ġimport",
        "ant"
      ],
      [
        "bb",
        "ed"
      ],
      [
        "W",
        "e"
      ],
      [
        "by",
        "e"
      ],
      [
        "Ġstr",
        "ong"
      ],
      [
        "g",
        "an"
      ],
      [
        "Ġa",
        "c"
      ],
      [
        "A",
        "nna"
      ],
      [
        "Ġevery",
        "one"
      ],
      [
        "Ġbr",
        "ight"
      ],
      [
        "d",
        "ay"
      ],
      [
        "fe",
        "re"
      ],
      [
        "Ġra",
        "bbit"
      ],
      [
        "Ġdif",
        "fere"
      ],
      [
        "Ġbo",
        "at"
      ],
      [
        "Ġ",
        "our"
      ],
      [
        "Ġrepl",
        "ied"
      ],
      [
        "Ġs",
        "qu"
      ],
      [
        "Ġw",
        "here"
      ],
      [
        "Ġr",
        "ight"
      ],
      [
        "Ġfo",
        "llow"
      ],
      [
        "ĠS",
        "pot"
      ],
      [
        "Ġu",
        "se"
      ],
      [
        "Ġdo",
        "es"
      ],
      [
        "c",
        "o"
      ],
      [
        "Ġwat",
        "ched"
      ],
      [
        "a",
        "ble"
      ],
      [
        "Ġh",
        "op"
      ],
      [
        "Ġy",
        "ell"
      ],
      [
        "Ġfa",
        "ce"
      ],
      [
        "at",
        "h"
      ],
      [
        "Ġm",
        "or"
      ],
      [
        "Ġquick",
        "ly"
      ],
      [
        "ĠS",
        "ue"
      ],
      [
        "L",
        "ook"
      ],
      [
        "er",
        "ed"
      ],
      [
        "Ġst",
        "ore"
      ],
      [
        "Ġ",
        "N"
      ],
      [
        "Ġd",
        "ress"
      ],
      [
        "Ġs",
        "ure"
      ],
      [
        "Ġbe",
        "en"
      ],
      [
        "Ġbec",
        "ame"
      ],
      [
        "an",
        "ge"
      ],
      [
        "Ġpl",
        "ace"
      ],
      [
        "S",
        "ara"
      ],
      [
        "n",
        "g"
      ],
      [
        "Ġdiffere",
        "nt"
      ],
      [
        "Ġch",
        "ild"
      ],
      [
        "ĠMom",
        "my"
      ],
      [
        "Ġcu",
        "ri"
      ],
      [
        "a",
        "ught"
      ],
      [
        "Ġwar",
        "m"
      ],
      [
        "Ġy",
        "e"
      ],
      [
        "Ġgood",
        "bye"
      ],
      [
        "Ġa",
        "m"
      ],
      [
        "S",
        "o"
      ],
      [
        "Ġm",
        "ag"
      ],
      [
        "ĠB",
        "ob"
      ],
      [
        "Ġh",
        "igh"
      ],
      [
        "Ġvo",
        "ice"
      ],
      [
        "Ġ",
        "R"
      ],
      [
        "Ġfor",
        "g"
      ],
      [
        "Ġbl",
        "ock"
      ],
      [
        "Ġt",
        "ell"
      ],
      [
        "Ġc",
        "ake"
      ],
      [
        "m",
        "ore"
      ],
      [
        "Ġany",
        "more"
      ],
      [
        "le",
        "ep"
      ],
      [
        "nd",
        "ma"
      ],
      [
        "Ġclos",
        "er"
      ],
      [
        "Ġc",
        "ook"
      ],
      [
        "Ġcuri",
        "ous"
      ],
      [
        "it",
        "c"
      ],
      [
        "Ġfa",
        "v"
      ],
      [
        "Ġbe",
        "l"
      ],
      [
        "ou",
        "nt"
      ],
      [
        "Ġn",
        "ight"
      ],
      [
        "Ġpu",
        "ll"
      ],
      [
        "Ġop",
        "en"
      ],
      [
        "ir",
        "ed"
      ],
      [
        "im",
        "es"
      ],
      [
        "ĠT",
        "h"
      ],
      [
        "Ġle",
        "a"
      ],
      [
        "a",
        "ched"
      ],
      [
        "Ġp",
        "ain"
      ],
      [
        "is",
        "s"
      ],
      [
        "Ġf",
        "irst"
      ],
      [
        "Ġ",
        "z"
      ],
      [
        "H",
        "er"
      ],
      [
        "Ġbut",
        "ter"
      ],
      [
        "Ġhe",
        "re"
      ],
      [
        "Ġfe",
        "ll"
      ],
      [
        "Ġb",
        "us"
      ],
      [
        "Ġk",
        "id"
      ],
      [
        "u",
        "ll"
      ],
      [
        "Ġgra",
        "bbed"
      ],
      [
        "Ġr",
        "u"
      ],
      [
        "Ġse",
        "es"
      ],
      [
        "J",
        "o"
      ],
      [
        "C",
        "an"
      ],
      [
        "un",
        "ny"
      ],
      [
        "Ġsw",
        "eet"
      ],
      [
        "or",
        "n"
      ],
      [
        "Ġon",
        "ly"
      ],
      [
        "Ġfl",
        "o"
      ],
      [
        "itc",
        "hen"
      ],
      [
        "Ġk",
        "itchen"
      ],
      [
        "Ġth",
        "ree"
      ],
      [
        "Ġsa",
        "nd"
      ],
      [
        "Ġhelp",
        "ed"
      ],
      [
        "Ġbird",
        "s"
      ],
      [
        "Ġst",
        "op"
      ],
      [
        "Ġd",
        "r"
      ],
      [
        "Ġcon",
        "t"
      ],
      [
        "Ġc",
        "ra"
      ],
      [
        "Ġb",
        "it"
      ],
      [
        "Ġb",
        "a"
      ],
      [
        "Ġhapp",
        "ened"
      ],
      [
        "Ġjump",
        "ed"
      ],
      [
        "Ġgl",
        "ad"
      ],
      [
        "Ġfi",
        "re"
      ],
      [
        "Ġm",
        "on"
      ],
      [
        "pp",
        "y"
      ],
      [
        "Ġs",
        "ing"
      ],
      [
        "Ġbe",
        "h"
      ],
      [
        "Ġgra",
        "ss"
      ],
      [
        "Ġt",
        "ri"
      ],
      [
        "Ġp",
        "er"
      ],
      [
        "Ġc",
        "r"
      ],
      [
        "Ġbr",
        "other"
      ],
      [
        "Ġreal",
        "ized"
      ],
      [
        "ĠD",
        "o"
      ],
      [
        "A",
        "fter"
      ],
      [
        "is",
        "y"
      ],
      [
        "Ġstor",
        "y"
      ],
      [
        "Ġshout",
        "ed"
      ],
      [
        "a",
        "ir"
      ],
      [
        "Ġre",
        "ached"
      ],
      [
        "Ġm",
        "ess"
      ],
      [
        "Ġso",
        "ft"
      ],
      [
        "ak",
        "es"
      ],
      [
        "as",
        "s"
      ],
      [
        "ĠL",
        "et"
      ],
      [
        "Ġy",
        "ummy"
      ],
      [
        "Ġl",
        "ady"
      ],
      [
        "Ġg",
        "ame"
      ],
      [
        "in",
        "s"
      ],
      [
        "Ġha",
        "ving"
      ],
      [
        "nt",
        "s"
      ],
      [
        "Ġdra",
        "w"
      ],
      [
        "Ġat",
        "e"
      ],
      [
        "Ġh",
        "at"
      ],
      [
        "Ġpr",
        "in"
      ],
      [
        "ĠSara",
        "h"
      ],
      [
        "Ġpret",
        "end"
      ],
      [
        "z",
        "y"
      ],
      [
        "ĠEvery",
        "one"
      ],
      [
        "Ġp",
        "ap"
      ],
      [
        "Ġthr",
        "ough"
      ],
      [
        "Ġfav",
        "or"
      ],
      [
        "Ġunder",
        "st"
      ],
      [
        "ĠJ",
        "ane"
      ],
      [
        "'",
        "re"
      ],
      [
        "w",
        "here"
      ],
      [
        "Ġc",
        "re"
      ],
      [
        "Ġl",
        "ess"
      ],
      [
        "Ġre",
        "st"
      ],
      [
        "Ġfavor",
        "ite"
      ],
      [
        "Ġre",
        "ady"
      ],
      [
        "at",
        "er"
      ],
      [
        "ĠA",
        "s"
      ],
      [
        "Ġth",
        "ing"
      ],
      [
        "Ġlook",
        "s"
      ],
      [
        "k",
        "en"
      ],
      [
        "Ġma",
        "king"
      ],
      [
        "at",
        "her"
      ],
      [
        "ĠC",
        "an"
      ],
      [
        "Ġkid",
        "s"
      ],
      [
        "Ġmag",
        "ic"
      ],
      [
        "Ġre",
        "ally"
      ],
      [
        "Ġd",
        "uck"
      ],
      [
        "Ġp",
        "are"
      ],
      [
        "Ġt",
        "ired"
      ],
      [
        "Ġpo",
        "nd"
      ],
      [
        "Ġfi",
        "x"
      ],
      [
        "Ġcar",
        "s"
      ],
      [
        "Ġc",
        "ut"
      ],
      [
        "Ġwor",
        "ld"
      ],
      [
        "W",
        "ow"
      ],
      [
        "Ġd",
        "one"
      ],
      [
        "ĠT",
        "hat"
      ],
      [
        "Ġbe",
        "gan"
      ],
      [
        "Ġm",
        "um"
      ],
      [
        "Ġb",
        "unny"
      ],
      [
        "Mom",
        "my"
      ],
      [
        "Ġwa",
        "ved"
      ],
      [
        "b",
        "o"
      ],
      [
        "Ġhim",
        "self"
      ],
      [
        "Ġcat",
        "ch"
      ],
      [
        "Ġbutter",
        "f"
      ],
      [
        "Ġcom",
        "ing"
      ],
      [
        "Ġto",
        "uch"
      ],
      [
        "Ġfun",
        "ny"
      ],
      [
        "Ġc",
        "ried"
      ],
      [
        "Ġu",
        "sed"
      ],
      [
        "fu",
        "lly"
      ],
      [
        "Ġwor",
        "ry"
      ],
      [
        "Ġp",
        "art"
      ],
      [
        "Ġwh",
        "y"
      ],
      [
        "Ġp",
        "rom"
      ],
      [
        "u",
        "ff"
      ],
      [
        "Ġnam",
        "e"
      ],
      [
        "ig",
        "n"
      ],
      [
        "Ġblock",
        "s"
      ],
      [
        "Ġan",
        "other"
      ],
      [
        "Ġf",
        "ill"
      ],
      [
        "ĠJo",
        "e"
      ],
      [
        "Ġst",
        "e"
      ],
      [
        "Ġflow",
        "er"
      ],
      [
        "Ġp",
        "us"
      ],
      [
        "Ġho",
        "ld"
      ],
      [
        "Ġf",
        "ro"
      ],
      [
        "Ġha",
        "ir"
      ],
      [
        "Ġta",
        "st"
      ],
      [
        "Ġto",
        "p"
      ],
      [
        "Ġse",
        "en"
      ],
      [
        "Ġc",
        "ool"
      ],
      [
        "st",
        "er"
      ],
      [
        "one",
        "y"
      ],
      [
        "Ġsw",
        "im"
      ],
      [
        "re",
        "l"
      ],
      [
        "Ġw",
        "ished"
      ],
      [
        "s",
        "h"
      ],
      [
        "ed",
        "dy"
      ],
      [
        "i",
        "ver"
      ],
      [
        "Ġthan",
        "k"
      ],
      [
        "Ġm",
        "ouse"
      ],
      [
        "Ġflo",
        "or"
      ],
      [
        "Ġl",
        "ight"
      ],
      [
        "Ġgre",
        "en"
      ],
      [
        "Ġb",
        "ag"
      ],
      [
        "i",
        "ent"
      ],
      [
        "Ġdel",
        "ic"
      ],
      [
        "Ġli",
        "kes"
      ],
      [
        "Ġg",
        "i"
      ],
      [
        "Ġpap",
        "er"
      ],
      [
        "Ġsm",
        "ell"
      ],
      [
        "Ġfar",
        "m"
      ],
      [
        "h",
        "y"
      ],
      [
        "Tim",
        "my"
      ],
      [
        "Ġpare",
        "nts"
      ],
      [
        "A",
        "s"
      ],
      [
        "Ġbeh",
        "ind"
      ],
      [
        "at",
        "ion"
      ],
      [
        "o",
        "lly"
      ],
      [
        "Ġless",
        "on"
      ],
      [
        "Ġd",
        "ri"
      ],
      [
        "D",
        "on"
      ],
      [
        "Ġsurpr",
        "ise"
      ],
      [
        "Ġdo",
        "ing"
      ],
      [
        "Ġho",
        "pped"
      ],
      [
        "Ġd",
        "ro"
      ],
      [
        "Ġb",
        "ow"
      ],
      [
        "Ġwor",
        "ked"
      ],
      [
        "Ġs",
        "leep"
      ],
      [
        "Ġho",
        "le"
      ],
      [
        "ard",
        "s"
      ],
      [
        "ĠJo",
        "hn"
      ],
      [
        "S",
        "am"
      ],
      [
        "Ġwind",
        "ow"
      ],
      [
        "and",
        "y"
      ],
      [
        "Ġyell",
        "ow"
      ],
      [
        "Ġre",
        "ad"
      ],
      [
        "Ġtre",
        "es"
      ],
      [
        "Ġd",
        "ark"
      ],
      [
        "Ġd",
        "in"
      ],
      [
        "Ġf",
        "ull"
      ],
      [
        "Ġsh",
        "o"
      ],
      [
        "Ġlaug",
        "h"
      ],
      [
        "Ġrun",
        "ning"
      ],
      [
        "a",
        "isy"
      ],
      [
        "u",
        "ed"
      ],
      [
        "i",
        "ke"
      ],
      [
        "el",
        "y"
      ],
      [
        "Ġco",
        "ld"
      ],
      [
        "re",
        "n"
      ],
      [
        "Ġsw",
        "ing"
      ],
      [
        "re",
        "w"
      ],
      [
        "Ġs",
        "at"
      ],
      [
        "Ġsp",
        "ot"
      ],
      [
        "Ġw",
        "ood"
      ],
      [
        "u",
        "l"
      ],
      [
        "\"",
        "."
      ],
      [
        "Ġsurpr",
        "ised"
      ],
      [
        "Ġsl",
        "ow"
      ],
      [
        "Ġremember",
        "ed"
      ],
      [
        "ar",
        "ing"
      ],
      [
        "Ġbutterf",
        "ly"
      ],
      [
        "Ġhapp",
        "ily"
      ],
      [
        "Ġs",
        "et"
      ],
      [
        "Ġlo",
        "st"
      ],
      [
        "Ġ",
        "-"
      ],
      [
        "Ġneed",
        "ed"
      ],
      [
        "on",
        "s"
      ],
      [
        "Ġye",
        "ars"
      ],
      [
        "Ġ",
        "ice"
      ],
      [
        "ĠI",
        "n"
      ],
      [
        "Ġhe",
        "ld"
      ],
      [
        "Ġbu",
        "y"
      ],
      [
        "H",
        "ell"
      ],
      [
        "Hell",
        "o"
      ],
      [
        "Ġmo",
        "ve"
      ],
      [
        "Ġfro",
        "g"
      ],
      [
        "Ġany",
        "thing"
      ],
      [
        "Ġwr",
        "ong"
      ],
      [
        "Ġcare",
        "fully"
      ],
      [
        "u",
        "it"
      ],
      [
        "Ġsn",
        "ow"
      ],
      [
        "Jo",
        "hn"
      ],
      [
        "Ġhe",
        "ar"
      ],
      [
        "Ġle",
        "ft"
      ],
      [
        "Ġt",
        "all"
      ],
      [
        "Ġh",
        "un"
      ],
      [
        "en",
        "s"
      ],
      [
        "Ġper",
        "f"
      ],
      [
        "Ġd",
        "ir"
      ],
      [
        "Ġd",
        "ream"
      ],
      [
        "Ġfa",
        "ir"
      ],
      [
        "Ġfollow",
        "ed"
      ],
      [
        "Ġa",
        "ir"
      ],
      [
        "Ġenjoy",
        "ed"
      ],
      [
        "ĠL",
        "ila"
      ],
      [
        "Ġe",
        "l"
      ],
      [
        "Ġfin",
        "ished"
      ],
      [
        "Ġc",
        "ast"
      ],
      [
        "Ġchild",
        "ren"
      ],
      [
        "c",
        "ess"
      ],
      [
        "Ġb",
        "ug"
      ],
      [
        "Ġbook",
        "s"
      ],
      [
        "Ġh",
        "ot"
      ],
      [
        "Ġta",
        "ble"
      ],
      [
        "in",
        "ally"
      ],
      [
        "in",
        "ed"
      ],
      [
        "Ġher",
        "self"
      ],
      [
        "Ġh",
        "ill"
      ],
      [
        "Ġh",
        "id"
      ],
      [
        "re",
        "ed"
      ],
      [
        "ĠA",
        "fter"
      ],
      [
        "Ġar",
        "ri"
      ],
      [
        "Ġfriend",
        "ly"
      ],
      [
        "Ġunderst",
        "and"
      ],
      [
        "d",
        "s"
      ],
      [
        "Ġar",
        "m"
      ],
      [
        "Ġcont",
        "in"
      ],
      [
        "Ġclo",
        "se"
      ],
      [
        "Ġp",
        "lease"
      ],
      [
        "Ġforg",
        "ot"
      ],
      [
        "ro",
        "ss"
      ],
      [
        "Ġm",
        "ight"
      ],
      [
        "Ġcolor",
        "s"
      ],
      [
        "Ġel",
        "se"
      ],
      [
        "ĠBen",
        "ny"
      ],
      [
        "Ġdelic",
        "ious"
      ],
      [
        "Ġbro",
        "ken"
      ],
      [
        "Ġbu",
        "ild"
      ],
      [
        "Ġwant",
        "s"
      ],
      [
        "as",
        "ure"
      ],
      [
        "Ġre",
        "l"
      ],
      [
        "l",
        "f"
      ],
      [
        "as",
        "h"
      ],
      [
        "Ġg",
        "one"
      ],
      [
        "s",
        "p"
      ],
      [
        "Ġg",
        "ent"
      ],
      [
        "ie",
        "ld"
      ],
      [
        "O",
        "K"
      ],
      [
        "Ġba",
        "by"
      ],
      [
        "ro",
        "om"
      ],
      [
        "at",
        "ter"
      ],
      [
        "Ġarri",
        "ved"
      ],
      [
        "Ġcre",
        "at"
      ],
      [
        "Ġt",
        "ight"
      ],
      [
        "Ġa",
        "ble"
      ],
      [
        "ĠN",
        "ow"
      ],
      [
        "Ġlea",
        "ves"
      ],
      [
        "Ġs",
        "ong"
      ],
      [
        "Ġwonder",
        "ful"
      ],
      [
        "Ġsome",
        "one"
      ],
      [
        "The",
        "n"
      ],
      [
        "Ġy",
        "es"
      ],
      [
        "Ġwa",
        "ll"
      ],
      [
        "Ġsqu",
        "ir"
      ],
      [
        "n",
        "er"
      ],
      [
        "ĠS",
        "ally"
      ],
      [
        "Ġfill",
        "ed"
      ],
      [
        "a",
        "v"
      ],
      [
        "Ġcontin",
        "ued"
      ],
      [
        "i",
        "ch"
      ],
      [
        "ĠThe",
        "re"
      ],
      [
        "as",
        "k"
      ],
      [
        "Ġli",
        "on"
      ],
      [
        "Ġc",
        "ount"
      ],
      [
        "Ġbre",
        "ak"
      ],
      [
        "Ġsquir",
        "rel"
      ],
      [
        "Ġag",
        "reed"
      ],
      [
        "Ġj",
        "u"
      ],
      [
        "Ġp",
        "ink"
      ],
      [
        "ĠM",
        "aybe"
      ],
      [
        "Ġsc",
        "ary"
      ],
      [
        "Ġpo",
        "in"
      ],
      [
        "Ġf",
        "all"
      ],
      [
        "Ġen",
        "ough"
      ],
      [
        "F",
        "rom"
      ],
      [
        "ĠD",
        "aisy"
      ],
      [
        "e",
        "y"
      ],
      [
        "Ġcast",
        "le"
      ],
      [
        "ic",
        "y"
      ],
      [
        "ri",
        "es"
      ],
      [
        "e",
        "e"
      ],
      [
        "m",
        "an"
      ],
      [
        "Ġgra",
        "ndma"
      ],
      [
        "ĠE",
        "m"
      ],
      [
        "Ġv",
        "is"
      ],
      [
        "Ġstay",
        "ed"
      ],
      [
        "Ġhun",
        "gry"
      ],
      [
        "Ġm",
        "akes"
      ],
      [
        "J",
        "ack"
      ],
      [
        "Ġmom",
        "ent"
      ],
      [
        "Ġmor",
        "ning"
      ],
      [
        "Ġsmil",
        "es"
      ],
      [
        "'",
        "ll"
      ],
      [
        "Ġfin",
        "ally"
      ],
      [
        "Ġw",
        "et"
      ],
      [
        "Ġf",
        "ight"
      ],
      [
        "Ġcom",
        "p"
      ],
      [
        "Ġcook",
        "ies"
      ],
      [
        "Ġget",
        "ting"
      ],
      [
        "ou",
        "p"
      ],
      [
        "Ġturn",
        "ed"
      ],
      [
        "Ġsomet",
        "imes"
      ],
      [
        "g",
        "on"
      ],
      [
        "a",
        "pp"
      ],
      [
        "r",
        "ow"
      ],
      [
        "Ġpicture",
        "s"
      ],
      [
        "Ġp",
        "i"
      ],
      [
        "Ġtal",
        "k"
      ],
      [
        "Ġbe",
        "ach"
      ],
      [
        "r",
        "ot"
      ],
      [
        "Ġc",
        "ream"
      ],
      [
        "am",
        "a"
      ],
      [
        "ĠTom",
        "my"
      ],
      [
        "Ġclimb",
        "ed"
      ],
      [
        "ĠTh",
        "is"
      ],
      [
        "Ġother",
        "s"
      ],
      [
        "Ġtry",
        "ing"
      ],
      [
        "Ġcl",
        "ot"
      ],
      [
        "Ġball",
        "oon"
      ],
      [
        "Ġ",
        "K"
      ],
      [
        "Ġlist",
        "ened"
      ],
      [
        "o",
        "om"
      ],
      [
        "Ġdin",
        "ner"
      ],
      [
        "Ġamaz",
        "ing"
      ],
      [
        "Ġta",
        "il"
      ],
      [
        "Ġclot",
        "hes"
      ],
      [
        "c",
        "ed"
      ],
      [
        "Ġmu",
        "s"
      ],
      [
        "ĠW",
        "hat"
      ],
      [
        "Ġfe",
        "w"
      ],
      [
        "an",
        "ce"
      ],
      [
        "a",
        "pped"
      ],
      [
        "Ġm",
        "ar"
      ],
      [
        "Th",
        "is"
      ],
      [
        "Ġm",
        "et"
      ],
      [
        "Ġpu",
        "ppy"
      ],
      [
        "l",
        "c"
      ],
      [
        "A",
        "t"
      ],
      [
        "Ġm",
        "other"
      ],
      [
        "en",
        "ce"
      ],
      [
        "Ġdad",
        "dy"
      ],
      [
        "Ġperf",
        "ect"
      ],
      [
        "or",
        "ing"
      ],
      [
        "am",
        "p"
      ],
      [
        "Ġask",
        "s"
      ],
      [
        "Ġsp",
        "l"
      ],
      [
        "ĠB",
        "illy"
      ],
      [
        "ĠG",
        "ra"
      ],
      [
        "Ġwh",
        "ite"
      ],
      [
        "ĠJ",
        "en"
      ],
      [
        "ke",
        "y"
      ],
      [
        "r",
        "ed"
      ],
      [
        "Ġf",
        "ur"
      ],
      [
        "Ġal",
        "one"
      ],
      [
        "ct",
        "or"
      ],
      [
        "uff",
        "y"
      ],
      [
        "Ġp",
        "et"
      ],
      [
        "H",
        "is"
      ],
      [
        "Ġsa",
        "il"
      ],
      [
        "Ġwas",
        "n"
      ],
      [
        "uck",
        "y"
      ],
      [
        "Ġs",
        "it"
      ],
      [
        "Ġbr",
        "ought"
      ],
      [
        "Ġevery",
        "thing"
      ],
      [
        "Ġse",
        "ar"
      ],
      [
        "is",
        "ter"
      ],
      [
        "Ġpo",
        "l"
      ],
      [
        "d",
        "er"
      ],
      [
        "Ġjo",
        "y"
      ],
      [
        "O",
        "h"
      ],
      [
        "Ġgr",
        "ow"
      ],
      [
        "ot",
        "t"
      ],
      [
        "Ġro",
        "ll"
      ],
      [
        "Ġstr",
        "ange"
      ],
      [
        "Ġpull",
        "ed"
      ],
      [
        "at",
        "ed"
      ],
      [
        "Ġwa",
        "ited"
      ],
      [
        "Ġp",
        "ie"
      ],
      [
        "w",
        "l"
      ],
      [
        "Ġsp",
        "ark"
      ],
      [
        "Ġde",
        "ep"
      ],
      [
        "Ġr",
        "ide"
      ],
      [
        "ĠT",
        "o"
      ],
      [
        "Ġdan",
        "ger"
      ],
      [
        "Ġwood",
        "s"
      ],
      [
        "Ġpl",
        "an"
      ],
      [
        "Ġw",
        "on"
      ],
      [
        "Ġrun",
        "s"
      ],
      [
        "Ġle",
        "ave"
      ],
      [
        "Ġmus",
        "ic"
      ],
      [
        "m",
        "e"
      ],
      [
        "Ġthink",
        "s"
      ],
      [
        "Ġamaz",
        "ed"
      ],
      [
        "Ġvis",
        "it"
      ],
      [
        "z",
        "z"
      ],
      [
        "ow",
        "er"
      ],
      [
        "Ġh",
        "ide"
      ],
      [
        "an",
        "g"
      ],
      [
        "Ġt",
        "eddy"
      ],
      [
        "Ġcl",
        "oud"
      ],
      [
        "et",
        "er"
      ],
      [
        "M",
        "aybe"
      ],
      [
        "Ġfo",
        "x"
      ],
      [
        "Ġp",
        "at"
      ],
      [
        "o",
        "s"
      ],
      [
        "e",
        "ver"
      ],
      [
        "Ġp",
        "en"
      ],
      [
        "Ġs",
        "illy"
      ],
      [
        "ug",
        "g"
      ],
      [
        "Ġli",
        "ving"
      ],
      [
        "Ġfly",
        "ing"
      ],
      [
        "M",
        "ax"
      ],
      [
        "op",
        "e"
      ],
      [
        "Ġsh",
        "ap"
      ],
      [
        "Ġe",
        "m"
      ],
      [
        "Ġtow",
        "ards"
      ],
      [
        "g",
        "s"
      ],
      [
        "Ġtre",
        "at"
      ],
      [
        "Ġown",
        "er"
      ],
      [
        "m",
        "ed"
      ],
      [
        "am",
        "es"
      ],
      [
        "is",
        "es"
      ],
      [
        "Ġp",
        "a"
      ],
      [
        "th",
        "y"
      ],
      [
        "Ġp",
        "re"
      ],
      [
        "Ġg",
        "u"
      ],
      [
        "Ġs",
        "ide"
      ],
      [
        "O",
        "kay"
      ],
      [
        "Ġla",
        "nd"
      ],
      [
        "Ġgr",
        "ate"
      ],
      [
        "Ġf",
        "ield"
      ],
      [
        "Ġl",
        "ake"
      ],
      [
        "Ġsh",
        "ared"
      ],
      [
        "ain",
        "ed"
      ],
      [
        "Ġqu",
        "i"
      ],
      [
        "Ġm",
        "oney"
      ],
      [
        "Ġpain",
        "t"
      ],
      [
        "ck",
        "et"
      ],
      [
        "ig",
        "g"
      ],
      [
        "Ġfast",
        "er"
      ],
      [
        "Ġpart",
        "y"
      ],
      [
        "Ġprom",
        "ised"
      ],
      [
        "Ġgrate",
        "ful"
      ],
      [
        "ĠA",
        "my"
      ],
      [
        "Ġs",
        "ister"
      ],
      [
        "Ġbel",
        "ie"
      ],
      [
        "Ġdan",
        "ce"
      ],
      [
        "Ġb",
        "ott"
      ],
      [
        "Ġr",
        "ace"
      ],
      [
        "av",
        "y"
      ],
      [
        "Ġmor",
        "al"
      ],
      [
        "i",
        "x"
      ],
      [
        "ec",
        "es"
      ],
      [
        "Ġcu",
        "p"
      ],
      [
        "c",
        "le"
      ],
      [
        "Ġtre",
        "asure"
      ],
      [
        "Ġbro",
        "ke"
      ],
      [
        "u",
        "p"
      ],
      [
        "Ġpi",
        "eces"
      ],
      [
        "Ġc",
        "andy"
      ],
      [
        "Ġjo",
        "b"
      ],
      [
        "Ġqui",
        "et"
      ],
      [
        "Ġwor",
        "ried"
      ],
      [
        "un",
        "ch"
      ],
      [
        "Ġbl",
        "ank"
      ],
      [
        "Ġcolor",
        "ful"
      ],
      [
        "s",
        "w"
      ],
      [
        "Ġtra",
        "in"
      ],
      [
        "z",
        "e"
      ],
      [
        "Ġbig",
        "ger"
      ],
      [
        "Ġbr",
        "an"
      ],
      [
        "Ġan",
        "sw"
      ],
      [
        "Ġslow",
        "ly"
      ],
      [
        "or",
        "m"
      ],
      [
        "Ġwe",
        "ar"
      ],
      [
        "out",
        "h"
      ],
      [
        "Ġg",
        "if"
      ],
      [
        "Ġdoll",
        "s"
      ],
      [
        "Ġwe",
        "lc"
      ],
      [
        "u",
        "ally"
      ],
      [
        "Ġblank",
        "et"
      ],
      [
        "Ġre",
        "ach"
      ],
      [
        "Ġm",
        "outh"
      ],
      [
        "l",
        "ing"
      ],
      [
        "Ġmu",
        "st"
      ],
      [
        "Ġ",
        "ve"
      ],
      [
        "Ġsn",
        "ack"
      ],
      [
        "o",
        "l"
      ],
      [
        "Ġs",
        "uch"
      ],
      [
        "Ġch",
        "o"
      ],
      [
        "f",
        "ort"
      ],
      [
        "Ġb",
        "ike"
      ],
      [
        "Ġevery",
        "where"
      ],
      [
        "Ġe",
        "le"
      ],
      [
        "Ġsm",
        "art"
      ],
      [
        "Ġsc",
        "ream"
      ],
      [
        "as",
        "ed"
      ],
      [
        "Ġpr",
        "o"
      ],
      [
        "Ġbl",
        "ack"
      ],
      [
        "le",
        "ss"
      ],
      [
        "p",
        "h"
      ],
      [
        "Ġr",
        "iver"
      ],
      [
        "ĠA",
        "ll"
      ],
      [
        "i",
        "re"
      ],
      [
        "Ġn",
        "ap"
      ],
      [
        "Ġpl",
        "ant"
      ],
      [
        "Ġb",
        "ar"
      ],
      [
        "Ġjo",
        "in"
      ],
      [
        "ĠJ",
        "im"
      ],
      [
        "Ġmagic",
        "al"
      ],
      [
        "S",
        "ure"
      ],
      [
        "Ġj",
        "e"
      ],
      [
        "Ġp",
        "ot"
      ],
      [
        "Ġs",
        "ign"
      ],
      [
        "Ġprin",
        "cess"
      ],
      [
        "Ġdanger",
        "ous"
      ],
      [
        "Ġhelp",
        "ing"
      ],
      [
        "Ġw",
        "in"
      ],
      [
        "ck",
        "ed"
      ],
      [
        "Ġth",
        "rew"
      ],
      [
        "s",
        "et"
      ],
      [
        "Ġdir",
        "ty"
      ],
      [
        "m",
        "ing"
      ],
      [
        "Ġcar",
        "rot"
      ],
      [
        "Ġtw",
        "ins"
      ],
      [
        "Ġbow",
        "l"
      ],
      [
        "Ġdra",
        "gon"
      ],
      [
        "Ġcry",
        "ing"
      ],
      [
        "Ġtow",
        "er"
      ],
      [
        "i",
        "pped"
      ],
      [
        "Ġb",
        "ite"
      ],
      [
        "Ġhop",
        "ed"
      ],
      [
        "Ġdo",
        "ctor"
      ],
      [
        "or",
        "ed"
      ],
      [
        "Ġmo",
        "st"
      ],
      [
        "Ġte",
        "ac"
      ],
      [
        "ĠF",
        "l"
      ],
      [
        "Ġsp",
        "r"
      ],
      [
        "id",
        "ent"
      ],
      [
        "Ġsa",
        "me"
      ],
      [
        "Ġfarm",
        "er"
      ],
      [
        "Ġhe",
        "avy"
      ],
      [
        "Ġbe",
        "e"
      ],
      [
        "Ġwor",
        "ds"
      ],
      [
        "Ġmon",
        "ster"
      ],
      [
        "Ġac",
        "c"
      ],
      [
        "Ġmon",
        "key"
      ],
      [
        "b",
        "ble"
      ],
      [
        "e",
        "ar"
      ],
      [
        "e",
        "re"
      ],
      [
        "d",
        "e"
      ],
      [
        "Ġhe",
        "al"
      ],
      [
        "Ġac",
        "ross"
      ],
      [
        "Ġco",
        "ll"
      ],
      [
        "Ġb",
        "ath"
      ],
      [
        "W",
        "hy"
      ],
      [
        "Ġdis",
        "app"
      ],
      [
        "H",
        "i"
      ],
      [
        "Ġb",
        "uck"
      ],
      [
        "Ġh",
        "ig"
      ],
      [
        "Ġfr",
        "uit"
      ],
      [
        "Ġste",
        "pped"
      ],
      [
        "ĠDad",
        "dy"
      ],
      [
        "Ġst",
        "re"
      ],
      [
        "Ġclo",
        "sed"
      ],
      [
        "Ġst",
        "uck"
      ],
      [
        "e",
        "ared"
      ],
      [
        "M",
        "ia"
      ],
      [
        "ĠJ",
        "ill"
      ],
      [
        "Ġhe",
        "art"
      ],
      [
        "Ġto",
        "wn"
      ],
      [
        "Ġfeel",
        "s"
      ],
      [
        "ch",
        "ool"
      ],
      [
        "Ġbelie",
        "ve"
      ],
      [
        "Ġwould",
        "n"
      ],
      [
        "ĠM",
        "r"
      ],
      [
        "ask",
        "et"
      ],
      [
        "Ġb",
        "asket"
      ],
      [
        "Ġm",
        "ix"
      ],
      [
        "Ġteac",
        "her"
      ],
      [
        "Ġcr",
        "ay"
      ],
      [
        "Ġc",
        "our"
      ],
      [
        "Ġbut",
        "t"
      ],
      [
        "Ġat",
        "t"
      ],
      [
        "Ġeat",
        "ing"
      ],
      [
        "Ġh",
        "it"
      ],
      [
        "Ġs",
        "chool"
      ],
      [
        "it",
        "ing"
      ],
      [
        "Ġch",
        "air"
      ],
      [
        "ĠM",
        "olly"
      ],
      [
        "Ġpus",
        "hed"
      ],
      [
        "Ġbr",
        "own"
      ],
      [
        "Ġy",
        "ard"
      ],
      [
        "Ġgent",
        "le"
      ],
      [
        "Ġp",
        "ack"
      ],
      [
        "Ġm",
        "in"
      ],
      [
        "Ġcour",
        "se"
      ],
      [
        "Ġne",
        "igh"
      ],
      [
        "Ġwith",
        "out"
      ],
      [
        "b",
        "r"
      ],
      [
        "Ġcl",
        "apped"
      ],
      [
        "is",
        "sed"
      ],
      [
        "or",
        "d"
      ],
      [
        "t",
        "s"
      ],
      [
        "um",
        "b"
      ],
      [
        "Ġhig",
        "her"
      ],
      [
        "Ġp",
        "ers"
      ],
      [
        "pp",
        "ing"
      ],
      [
        "Ġsm",
        "o"
      ],
      [
        "Ġse",
        "c"
      ],
      [
        "Ġneigh",
        "b"
      ],
      [
        "Ġsw",
        "ings"
      ],
      [
        "Ġacc",
        "ident"
      ],
      [
        "Ġfair",
        "y"
      ],
      [
        "L",
        "ila"
      ],
      [
        "i",
        "er"
      ],
      [
        "ve",
        "l"
      ],
      [
        "Ġto",
        "day"
      ],
      [
        "or",
        "row"
      ],
      [
        "Ġg",
        "ames"
      ],
      [
        "Ġwelc",
        "ome"
      ],
      [
        "Ġd",
        "ry"
      ],
      [
        "Ġst",
        "and"
      ],
      [
        "Ġno",
        "ises"
      ],
      [
        "or",
        "s"
      ],
      [
        "Ġdro",
        "ve"
      ],
      [
        "Ġpo",
        "cket"
      ],
      [
        "Ġthr",
        "ow"
      ],
      [
        "Ġs",
        "uddenly"
      ],
      [
        "vent",
        "ually"
      ],
      [
        "Ġfor",
        "get"
      ],
      [
        "Ġl",
        "on"
      ],
      [
        "Ġturn",
        "s"
      ],
      [
        "Ġhug",
        "s"
      ],
      [
        "Ġpie",
        "ce"
      ],
      [
        "Ġche",
        "ered"
      ],
      [
        "ra",
        "ct"
      ],
      [
        "Ġf",
        "ree"
      ],
      [
        "Ġb",
        "en"
      ],
      [
        "Ġlon",
        "ely"
      ],
      [
        "Ġf",
        "ence"
      ],
      [
        "Ġhapp",
        "en"
      ],
      [
        "Ġw",
        "ings"
      ],
      [
        "c",
        "y"
      ],
      [
        "h",
        "o"
      ],
      [
        "our",
        "n"
      ],
      [
        "Ġne",
        "ck"
      ],
      [
        "Ġj",
        "ourn"
      ],
      [
        "Ġlong",
        "er"
      ],
      [
        "Ġsa",
        "ng"
      ],
      [
        "i",
        "ble"
      ],
      [
        "Ġexpl",
        "ained"
      ],
      [
        "e",
        "ad"
      ],
      [
        "Ġse",
        "a"
      ],
      [
        "Ġal",
        "ong"
      ],
      [
        "Ġs",
        "oup"
      ],
      [
        "Ġc",
        "orn"
      ],
      [
        "F",
        "inally"
      ],
      [
        "Ġstor",
        "ies"
      ],
      [
        "Ġl",
        "ate"
      ],
      [
        "Ġup",
        "set"
      ],
      [
        "Ġwe",
        "ll"
      ],
      [
        "itt",
        "ing"
      ],
      [
        "Ġsho",
        "es"
      ],
      [
        "Ġin",
        "st"
      ],
      [
        "Ġsec",
        "ret"
      ],
      [
        "Ġadventure",
        "s"
      ],
      [
        "Ġm",
        "iss"
      ],
      [
        "Ġm",
        "at"
      ],
      [
        "Ġst",
        "ars"
      ],
      [
        "Ġtr",
        "ou"
      ],
      [
        "Ġc",
        "aught"
      ],
      [
        "ph",
        "ant"
      ],
      [
        "Ġw",
        "he"
      ],
      [
        "c",
        "hes"
      ],
      [
        "Ġsing",
        "ing"
      ],
      [
        "Ġp",
        "h"
      ],
      [
        "Ġrock",
        "s"
      ],
      [
        "ou",
        "n"
      ],
      [
        "Ġbuck",
        "et"
      ],
      [
        "Ġl",
        "unch"
      ],
      [
        "ap",
        "e"
      ],
      [
        "c",
        "es"
      ],
      [
        "Ġsw",
        "am"
      ],
      [
        "Ġdro",
        "pped"
      ],
      [
        "Ġd",
        "ist"
      ],
      [
        "Ġw",
        "ish"
      ],
      [
        "Ġyou",
        "ng"
      ],
      [
        "Ġsh",
        "ook"
      ],
      [
        "ock",
        "ed"
      ],
      [
        "Ġdr",
        "ink"
      ],
      [
        "Ġele",
        "phant"
      ],
      [
        "Ġbr",
        "ing"
      ],
      [
        "Ġmo",
        "ved"
      ],
      [
        "y",
        "ard"
      ],
      [
        "m",
        "ent"
      ],
      [
        "Ġpl",
        "ac"
      ],
      [
        "Ġbel",
        "ong"
      ],
      [
        "Ġju",
        "ice"
      ],
      [
        "Ġn",
        "aught"
      ],
      [
        "ount",
        "ain"
      ],
      [
        "Ġst",
        "ar"
      ],
      [
        "Ġnaught",
        "y"
      ],
      [
        "Ġback",
        "yard"
      ],
      [
        "e",
        "k"
      ],
      [
        "ll",
        "o"
      ],
      [
        "ĠGra",
        "ndma"
      ],
      [
        "Ġm",
        "ine"
      ],
      [
        "fu",
        "sed"
      ],
      [
        "Ġj",
        "ar"
      ],
      [
        "Ġstre",
        "et"
      ],
      [
        "b",
        "ow"
      ],
      [
        "Ġto",
        "m"
      ],
      [
        "Ġp",
        "ast"
      ],
      [
        "Ġke",
        "y"
      ],
      [
        "ĠTh",
        "ank"
      ],
      [
        "Ġta",
        "kes"
      ],
      [
        "Ġta",
        "king"
      ],
      [
        "ĠM",
        "ary"
      ],
      [
        "Ġapp",
        "le"
      ],
      [
        "D",
        "o"
      ],
      [
        "Ġshap",
        "es"
      ],
      [
        "Ġp",
        "urp"
      ],
      [
        "Ġor",
        "ange"
      ],
      [
        "Ġexpl",
        "oring"
      ],
      [
        "w",
        "ard"
      ],
      [
        "Ġsh",
        "op"
      ],
      [
        "Ġo",
        "wl"
      ],
      [
        "Ġc",
        "ou"
      ],
      [
        "us",
        "h"
      ],
      [
        "u",
        "b"
      ],
      [
        "Ġnot",
        "hing"
      ],
      [
        "Ġex",
        "p"
      ],
      [
        "Ġnear",
        "by"
      ],
      [
        "Ġp",
        "ig"
      ],
      [
        "ĠEm",
        "ma"
      ],
      [
        "bb",
        "y"
      ],
      [
        "Ġw",
        "ise"
      ],
      [
        "Ġno",
        "se"
      ],
      [
        "Ġwonder",
        "ed"
      ],
      [
        "Ġre",
        "sp"
      ],
      [
        "Ġwo",
        "ke"
      ],
      [
        "ĠFl",
        "uffy"
      ],
      [
        "un",
        "g"
      ],
      [
        "Ġcom",
        "es"
      ],
      [
        "Ġ",
        "es"
      ],
      [
        "Ġsee",
        "med"
      ],
      [
        "Ġc",
        "ow"
      ],
      [
        "co",
        "l"
      ],
      [
        "Ġbus",
        "y"
      ],
      [
        "Ġa",
        "f"
      ],
      [
        "Ġd",
        "es"
      ],
      [
        "Ġsound",
        "s"
      ],
      [
        "Ġma",
        "il"
      ],
      [
        "Ġben",
        "ch"
      ],
      [
        "Ġt",
        "iny"
      ],
      [
        "Ġrel",
        "ie"
      ],
      [
        "Ġs",
        "ick"
      ],
      [
        "Ġin",
        "v"
      ],
      [
        "Ġst",
        "u"
      ],
      [
        "Ġpurp",
        "le"
      ],
      [
        "Ġm",
        "ark"
      ],
      [
        "c",
        "ing"
      ],
      [
        "Ġrain",
        "bow"
      ],
      [
        "aught",
        "er"
      ],
      [
        "Ġarm",
        "s"
      ],
      [
        "Ġc",
        "a"
      ],
      [
        "Ġth",
        "ough"
      ],
      [
        "ad",
        "ow"
      ],
      [
        "Ġm",
        "ad"
      ],
      [
        "Ġn",
        "est"
      ],
      [
        "ion",
        "s"
      ],
      [
        "f",
        "ish"
      ],
      [
        "o",
        "se"
      ],
      [
        "in",
        "ing"
      ],
      [
        "Ġm",
        "il"
      ],
      [
        "Ġye",
        "ar"
      ],
      [
        "s",
        "y"
      ],
      [
        "pp",
        "er"
      ],
      [
        "th",
        "day"
      ],
      [
        "es",
        "e"
      ],
      [
        "Ġ",
        "3"
      ],
      [
        "Ġs",
        "itting"
      ],
      [
        "ck",
        "s"
      ],
      [
        "Ġo",
        "b"
      ],
      [
        "Ġdri",
        "ver"
      ],
      [
        "Ġhold",
        "ing"
      ],
      [
        "A",
        "nd"
      ],
      [
        "Ġr",
        "ound"
      ],
      [
        "Ġk",
        "ing"
      ],
      [
        "Ġcar",
        "ry"
      ],
      [
        "ra",
        "id"
      ],
      [
        "re",
        "ad"
      ],
      [
        "Ġaf",
        "raid"
      ],
      [
        "it",
        "y"
      ],
      [
        "Ġbran",
        "ch"
      ],
      [
        "itt",
        "ens"
      ],
      [
        "Ġfore",
        "ver"
      ],
      [
        "ĠIn",
        "side"
      ],
      [
        "Ġc",
        "ir"
      ],
      [
        "Ġwh",
        "ist"
      ],
      [
        "Ġhe",
        "llo"
      ],
      [
        "Ġgif",
        "t"
      ],
      [
        "Ġ",
        "O"
      ],
      [
        "Ġk",
        "ite"
      ],
      [
        "w",
        "eet"
      ],
      [
        "Ġsp",
        "oon"
      ],
      [
        "bo",
        "ard"
      ],
      [
        "Ġb",
        "oun"
      ],
      [
        "ver",
        "ed"
      ],
      [
        "Ġcut",
        "e"
      ],
      [
        "Ġd",
        "aughter"
      ],
      [
        "Ġpe",
        "ace"
      ],
      [
        "Ġshe",
        "ll"
      ],
      [
        "Ġli",
        "ft"
      ],
      [
        "id",
        "ge"
      ],
      [
        "t",
        "o"
      ],
      [
        "Ġf",
        "it"
      ],
      [
        "Ġco",
        "at"
      ],
      [
        "Ġswim",
        "ming"
      ],
      [
        "Ġhug",
        "e"
      ],
      [
        "u",
        "ched"
      ],
      [
        "Ġto",
        "uched"
      ],
      [
        "ĠC",
        "ome"
      ],
      [
        "Ġbre",
        "ad"
      ],
      [
        "Ġpat",
        "ient"
      ],
      [
        "O",
        "f"
      ],
      [
        "our",
        "s"
      ],
      [
        "le",
        "t"
      ],
      [
        "Ġl",
        "etter"
      ],
      [
        "Ġbir",
        "thday"
      ],
      [
        "Ġprom",
        "ise"
      ],
      [
        "Ġgra",
        "b"
      ],
      [
        "Ġrelie",
        "ved"
      ],
      [
        "ĠF",
        "inally"
      ],
      [
        "c",
        "er"
      ],
      [
        "st",
        "ing"
      ],
      [
        "Ġgi",
        "ves"
      ],
      [
        "Ġaccident",
        "ally"
      ],
      [
        "Ġw",
        "ra"
      ],
      [
        "et",
        "h"
      ],
      [
        "Ġput",
        "s"
      ],
      [
        "Ġb",
        "and"
      ],
      [
        "Ġhop",
        "e"
      ],
      [
        "Ġmil",
        "k"
      ],
      [
        "g",
        "g"
      ],
      [
        "Ġbott",
        "le"
      ],
      [
        "Ġcreat",
        "ure"
      ],
      [
        "He",
        "y"
      ],
      [
        "Ġf",
        "ing"
      ],
      [
        "sh",
        "ine"
      ],
      [
        "Ġday",
        "s"
      ],
      [
        "Ġche",
        "ese"
      ],
      [
        "Ġint",
        "ere"
      ],
      [
        "Ġli",
        "fe"
      ],
      [
        "Ġlaug",
        "hing"
      ],
      [
        "Ġg",
        "igg"
      ],
      [
        "Ġco",
        "zy"
      ],
      [
        "Ġcoll",
        "ect"
      ],
      [
        "al",
        "m"
      ],
      [
        "Ġl",
        "ucky"
      ],
      [
        "Ġon",
        "to"
      ],
      [
        "Ġexc",
        "iting"
      ],
      [
        "Ġk",
        "ick"
      ],
      [
        "ĠSam",
        "my"
      ],
      [
        "Ġre",
        "t"
      ],
      [
        "Ġm",
        "ist"
      ],
      [
        "Ġp",
        "ower"
      ],
      [
        "Ġsp",
        "in"
      ],
      [
        "Ġc",
        "ave"
      ],
      [
        "Ġcom",
        "fort"
      ],
      [
        "Ġdis",
        "co"
      ],
      [
        "Ġjourn",
        "ey"
      ],
      [
        "Ġa",
        "ct"
      ],
      [
        "Ġsun",
        "shine"
      ],
      [
        "o",
        "g"
      ],
      [
        "Ġsun",
        "ny"
      ],
      [
        "g",
        "ged"
      ],
      [
        "Ġf",
        "an"
      ],
      [
        "Ġe",
        "ar"
      ],
      [
        "Ġbus",
        "h"
      ],
      [
        "L",
        "ater"
      ],
      [
        "Ġinst",
        "ead"
      ],
      [
        "Ġret",
        "urn"
      ],
      [
        "p",
        "ed"
      ],
      [
        "t",
        "en"
      ],
      [
        "ar",
        "p"
      ],
      [
        "Ġp",
        "udd"
      ],
      [
        "Ġpoin",
        "ted"
      ],
      [
        "Ġin",
        "c"
      ],
      [
        "n",
        "ess"
      ],
      [
        "Ġsmil",
        "ing"
      ],
      [
        "Ġim",
        "ag"
      ],
      [
        "Ġe",
        "as"
      ],
      [
        "iz",
        "e"
      ],
      [
        "ĠM",
        "ama"
      ],
      [
        "Ġsear",
        "ched"
      ],
      [
        "el",
        "s"
      ],
      [
        "Ġh",
        "oney"
      ],
      [
        "it",
        "ch"
      ],
      [
        "Ġsh",
        "arp"
      ],
      [
        "Ġro",
        "ad"
      ],
      [
        "Ġany",
        "one"
      ],
      [
        "Ġh",
        "or"
      ],
      [
        "ĠSo",
        "on"
      ],
      [
        "Ġtal",
        "ked"
      ],
      [
        "Ġsp",
        "o"
      ],
      [
        "Ġb",
        "ought"
      ],
      [
        "om",
        "an"
      ],
      [
        "b",
        "all"
      ],
      [
        "Ġl",
        "ater"
      ],
      [
        "Ġs",
        "uc"
      ],
      [
        "Ġw",
        "oman"
      ],
      [
        "Ġsand",
        "w"
      ],
      [
        "Ġpl",
        "ane"
      ],
      [
        "Ġg",
        "ather"
      ],
      [
        "ble",
        "m"
      ],
      [
        "Tom",
        "my"
      ],
      [
        "Ġpro",
        "blem"
      ],
      [
        "Ġsnow",
        "man"
      ],
      [
        "Ġpers",
        "on"
      ],
      [
        "m",
        "er"
      ],
      [
        "Ġwatch",
        "ing"
      ],
      [
        "u",
        "nt"
      ],
      [
        "Ġcray",
        "ons"
      ],
      [
        "Ġsmell",
        "ed"
      ],
      [
        "Ġheal",
        "thy"
      ],
      [
        "Ġr",
        "ope"
      ],
      [
        "Ġtast",
        "y"
      ],
      [
        "ir",
        "t"
      ],
      [
        "Ġtrou",
        "ble"
      ],
      [
        "G",
        "ood"
      ],
      [
        "Ġme",
        "et"
      ],
      [
        "Ġc",
        "e"
      ],
      [
        "Ġs",
        "u"
      ],
      [
        "Ġduck",
        "s"
      ],
      [
        "r",
        "ound"
      ],
      [
        "Ġp",
        "op"
      ],
      [
        "Ġlo",
        "ves"
      ],
      [
        "Ġk",
        "iss"
      ],
      [
        "B",
        "ob"
      ],
      [
        "itt",
        "en"
      ],
      [
        "Ġp",
        "ile"
      ],
      [
        "e",
        "en"
      ],
      [
        "Ġcloud",
        "s"
      ],
      [
        "Ġ",
        "ent"
      ],
      [
        "Ġapp",
        "les"
      ],
      [
        "Ġsh",
        "ining"
      ],
      [
        "Ġp",
        "ar"
      ],
      [
        "o",
        "ve"
      ],
      [
        "Ġstor",
        "m"
      ],
      [
        "Ġsp",
        "id"
      ],
      [
        "Ġbutt",
        "on"
      ],
      [
        "Ġintere",
        "sting"
      ],
      [
        "Ġm",
        "ach"
      ],
      [
        "Ġz",
        "oom"
      ],
      [
        "am",
        "ed"
      ],
      [
        "Ġor",
        "gan"
      ],
      [
        "Ġc",
        "ard"
      ],
      [
        "Ġad",
        "m"
      ],
      [
        "Ġz",
        "oo"
      ],
      [
        "ĠT",
        "weet"
      ],
      [
        "Ġpre",
        "s"
      ],
      [
        "Ġw",
        "ide"
      ],
      [
        "Ġcle",
        "ver"
      ],
      [
        "Ġre",
        "s"
      ],
      [
        "on",
        "t"
      ],
      [
        "Ġfe",
        "ather"
      ],
      [
        "Ġm",
        "atter"
      ],
      [
        "ow",
        "ed"
      ],
      [
        "Ġp",
        "ill"
      ],
      [
        "a",
        "le"
      ],
      [
        "e",
        "b"
      ],
      [
        "ĠS",
        "omet"
      ],
      [
        "nd",
        "p"
      ],
      [
        "Ġb",
        "ark"
      ],
      [
        "Ġh",
        "on"
      ],
      [
        "Ġp",
        "ract"
      ],
      [
        "ĠW",
        "ith"
      ],
      [
        "Ġpr",
        "ot"
      ],
      [
        "a",
        "ur"
      ],
      [
        "ll",
        "a"
      ],
      [
        "Ġa",
        "p"
      ],
      [
        "Ġresp",
        "ect"
      ],
      [
        "Ġe",
        "ag"
      ],
      [
        "Ġfr",
        "ont"
      ],
      [
        "Ġscream",
        "ed"
      ],
      [
        "ep",
        "end"
      ],
      [
        "Ġgo",
        "es"
      ],
      [
        "a",
        "il"
      ],
      [
        "Ġmu",
        "d"
      ],
      [
        "Ġse",
        "at"
      ],
      [
        "Ġprot",
        "ect"
      ],
      [
        "Ġneighb",
        "or"
      ],
      [
        "Ġsa",
        "f"
      ],
      [
        "Ġsh",
        "r"
      ],
      [
        "Ġqu",
        "est"
      ],
      [
        "e",
        "x"
      ],
      [
        "Ġdan",
        "ced"
      ],
      [
        "Ġhor",
        "se"
      ],
      [
        "is",
        "a"
      ],
      [
        "Ġs",
        "ur"
      ],
      [
        "Ġtri",
        "p"
      ],
      [
        "Ġansw",
        "er"
      ],
      [
        "Ġpu",
        "zz"
      ],
      [
        "Ġas",
        "leep"
      ],
      [
        "L",
        "ucy"
      ],
      [
        "Ġv",
        "ill"
      ],
      [
        "Ġpres",
        "ent"
      ],
      [
        "Ġmy",
        "ster"
      ],
      [
        "Ġspot",
        "ted"
      ],
      [
        "Ġtri",
        "es"
      ],
      [
        "Ġapp",
        "eared"
      ],
      [
        "S",
        "t"
      ],
      [
        "Ġsn",
        "ake"
      ],
      [
        "er",
        "ly"
      ],
      [
        "C",
        "ome"
      ],
      [
        "Ġte",
        "ach"
      ],
      [
        "Ġwho",
        "le"
      ],
      [
        "Ġp",
        "ath"
      ],
      [
        "Ġgi",
        "ant"
      ],
      [
        "Ġw",
        "ild"
      ],
      [
        "Ġlove",
        "ly"
      ],
      [
        "Ġche",
        "er"
      ],
      [
        "ch",
        "ing"
      ],
      [
        "Ġph",
        "one"
      ],
      [
        "Ġsl",
        "id"
      ],
      [
        "Ġplac",
        "es"
      ],
      [
        "Ġwh",
        "ich"
      ],
      [
        "Åĵ",
        "I"
      ],
      [
        "Ġd",
        "i"
      ],
      [
        "Ġwe",
        "aring"
      ],
      [
        "Ġte",
        "eth"
      ],
      [
        "Ġdir",
        "t"
      ],
      [
        "Ġforg",
        "ive"
      ],
      [
        "Ġroll",
        "ed"
      ],
      [
        "oo",
        "se"
      ],
      [
        "Ġcon",
        "fused"
      ],
      [
        "iz",
        "z"
      ],
      [
        "ĠG",
        "o"
      ],
      [
        "ul",
        "ar"
      ],
      [
        "J",
        "ust"
      ],
      [
        "Ġtast",
        "ed"
      ],
      [
        "Ġmin",
        "ut"
      ],
      [
        "on",
        "es"
      ],
      [
        "Ġgent",
        "ly"
      ],
      [
        "Ġimp",
        "ress"
      ],
      [
        "Ġv",
        "al"
      ],
      [
        "Ġcou",
        "ch"
      ],
      [
        "Ġt",
        "un"
      ],
      [
        "Ġfa",
        "ces"
      ],
      [
        "Ġth",
        "in"
      ],
      [
        "E",
        "very"
      ],
      [
        "Ġru",
        "de"
      ],
      [
        "ĠM",
        "ittens"
      ],
      [
        "er",
        "t"
      ],
      [
        "ĠH",
        "ow"
      ],
      [
        "ss",
        "ed"
      ],
      [
        "Ġp",
        "ass"
      ],
      [
        "Ġc",
        "alm"
      ],
      [
        "Ġli",
        "ve"
      ],
      [
        "itt",
        "y"
      ],
      [
        "Ġm",
        "ind"
      ],
      [
        "ndp",
        "a"
      ],
      [
        "Ġsp",
        "ent"
      ],
      [
        "Ġspl",
        "as"
      ],
      [
        "ĠJim",
        "my"
      ],
      [
        "Ġpretend",
        "ed"
      ],
      [
        "J",
        "im"
      ],
      [
        "Ġm",
        "ed"
      ],
      [
        "Ġp",
        "an"
      ],
      [
        "ce",
        "an"
      ],
      [
        "Ġo",
        "cean"
      ],
      [
        "Ġas",
        "h"
      ],
      [
        "Ġfe",
        "et"
      ],
      [
        "I",
        "n"
      ],
      [
        "Ġsu",
        "pp"
      ],
      [
        "Ġsa",
        "l"
      ],
      [
        "Ġl",
        "ad"
      ],
      [
        "n",
        "ic"
      ],
      [
        "l",
        "a"
      ],
      [
        "Ġs",
        "er"
      ],
      [
        "Ġp",
        "our"
      ],
      [
        "Ġpic",
        "nic"
      ],
      [
        "Ġco",
        "in"
      ],
      [
        "Ġmach",
        "ine"
      ],
      [
        "Ġl",
        "ay"
      ],
      [
        "un",
        "k"
      ],
      [
        "M",
        "olly"
      ],
      [
        "Ġsa",
        "ck"
      ],
      [
        "Ġcorn",
        "er"
      ],
      [
        "Ġr",
        "ing"
      ],
      [
        "Ġwr",
        "ite"
      ],
      [
        "Ġdri",
        "ve"
      ],
      [
        "Ġwor",
        "m"
      ],
      [
        "Ġbug",
        "s"
      ],
      [
        "Ġspid",
        "er"
      ],
      [
        "Ġo",
        "ven"
      ],
      [
        "Ġwa",
        "ve"
      ],
      [
        "Ġcho",
        "col"
      ],
      [
        "Ġem",
        "b"
      ],
      [
        "M",
        "um"
      ],
      [
        "Ġpus",
        "h"
      ],
      [
        "Ġbuild",
        "ing"
      ],
      [
        "h",
        "ile"
      ],
      [
        "Ġsmo",
        "oth"
      ],
      [
        "Ġla",
        "st"
      ],
      [
        "Ġ",
        "ign"
      ],
      [
        "Ġtom",
        "orrow"
      ],
      [
        "Ġcook",
        "ie"
      ],
      [
        "Ġhelp",
        "ful"
      ],
      [
        "um",
        "ber"
      ],
      [
        "ar",
        "ge"
      ],
      [
        "Ġcan",
        "n"
      ],
      [
        "Ġc",
        "art"
      ],
      [
        "Ġhid",
        "ing"
      ],
      [
        "Ġre",
        "c"
      ],
      [
        "al",
        "s"
      ],
      [
        "Ġw",
        "ip"
      ],
      [
        "Ġfur",
        "ry"
      ],
      [
        "Ġlad",
        "der"
      ],
      [
        "Ġrem",
        "ind"
      ],
      [
        "Ġcann",
        "ot"
      ],
      [
        "Ġm",
        "ountain"
      ],
      [
        "le",
        "x"
      ],
      [
        "at",
        "or"
      ],
      [
        "Ġt",
        "id"
      ],
      [
        "Ġb",
        "lew"
      ],
      [
        "ĠEm",
        "ily"
      ],
      [
        "Ġbe",
        "ll"
      ],
      [
        "Ġb",
        "an"
      ],
      [
        "at",
        "o"
      ],
      [
        "Ġbu",
        "bble"
      ],
      [
        "Ġch",
        "ick"
      ],
      [
        "Ġpa",
        "w"
      ],
      [
        "Ġsp",
        "read"
      ],
      [
        "Ġtal",
        "king"
      ],
      [
        "if",
        "e"
      ],
      [
        "Ġfight",
        "ing"
      ],
      [
        "Ġfo",
        "ld"
      ],
      [
        "Ġfin",
        "ish"
      ],
      [
        "Ġtoo",
        "l"
      ],
      [
        "ĠSomet",
        "imes"
      ],
      [
        "Ġdel",
        "ight"
      ],
      [
        "Ġemb",
        "ar"
      ],
      [
        "Ġlea",
        "f"
      ],
      [
        "Ġembar",
        "ra"
      ],
      [
        "S",
        "oon"
      ],
      [
        "Ġs",
        "el"
      ],
      [
        "Ġw",
        "ore"
      ],
      [
        "Ġp",
        "ool"
      ],
      [
        "Ġro",
        "b"
      ],
      [
        "Ġfo",
        "ot"
      ],
      [
        "Ġpudd",
        "le"
      ],
      [
        "Ġsong",
        "s"
      ],
      [
        "Ġsh",
        "y"
      ],
      [
        "Ġkne",
        "e"
      ],
      [
        "ĠC",
        "h"
      ],
      [
        "ig",
        "hed"
      ],
      [
        "Ġspr",
        "ay"
      ],
      [
        "Ġe",
        "ventually"
      ],
      [
        "Ġre",
        "p"
      ],
      [
        "Ġneck",
        "l"
      ],
      [
        "Ġwait",
        "ing"
      ],
      [
        "Ġm",
        "aybe"
      ],
      [
        "Ġchocol",
        "ate"
      ],
      [
        "m",
        "o"
      ],
      [
        "Ġn",
        "et"
      ],
      [
        "Ġch",
        "ased"
      ],
      [
        "Ġb",
        "at"
      ],
      [
        "Ġwhen",
        "ever"
      ],
      [
        "Ġfix",
        "ed"
      ],
      [
        "op",
        "h"
      ],
      [
        "Ġst",
        "ret"
      ],
      [
        "ĠJ",
        "ust"
      ],
      [
        "ĠJen",
        "ny"
      ],
      [
        "Ġbar",
        "ked"
      ],
      [
        "Ġl",
        "arge"
      ],
      [
        "ul",
        "t"
      ],
      [
        "Ġsel",
        "fish"
      ],
      [
        "Ġstr",
        "ing"
      ],
      [
        "Ġc",
        "oo"
      ],
      [
        "Ġso",
        "l"
      ],
      [
        "ĠP",
        "lease"
      ],
      [
        "le",
        "br"
      ],
      [
        "ĠEvery",
        "where"
      ],
      [
        "Ġwas",
        "h"
      ],
      [
        "Ġpeace",
        "ful"
      ],
      [
        "Ġwhist",
        "le"
      ],
      [
        "Ġce",
        "lebr"
      ],
      [
        "ĠS",
        "t"
      ],
      [
        "Ġst",
        "ir"
      ],
      [
        "Ġcarrot",
        "s"
      ],
      [
        "Ġa",
        "nt"
      ],
      [
        "Ġc",
        "ross"
      ],
      [
        "ur",
        "se"
      ],
      [
        "Ġsp",
        "e"
      ],
      [
        "Ġcreat",
        "ive"
      ],
      [
        "Ġpl",
        "ate"
      ],
      [
        "Ġtast",
        "e"
      ],
      [
        "Ġh",
        "um"
      ],
      [
        "Ġban",
        "an"
      ],
      [
        "Ġg",
        "en"
      ],
      [
        "Ġrob",
        "ot"
      ],
      [
        "Ġtid",
        "y"
      ],
      [
        "ĠL",
        "e"
      ],
      [
        "M",
        "y"
      ],
      [
        "Ġmo",
        "on"
      ],
      [
        "Ġkn",
        "ocked"
      ],
      [
        "ig",
        "er"
      ],
      [
        "Ġtr",
        "ust"
      ],
      [
        "Ġcra",
        "b"
      ],
      [
        "or",
        "ry"
      ],
      [
        "Ġhe",
        "ars"
      ],
      [
        "Ġtell",
        "s"
      ],
      [
        "bo",
        "x"
      ],
      [
        "Ġcl",
        "oth"
      ],
      [
        "Ġvill",
        "age"
      ],
      [
        "Ġm",
        "issed"
      ],
      [
        "Ġst",
        "one"
      ],
      [
        "ung",
        "le"
      ],
      [
        "Ġst",
        "ra"
      ],
      [
        "Ġcol",
        "our"
      ],
      [
        "Ġembarra",
        "ssed"
      ],
      [
        "air",
        "s"
      ],
      [
        "Ġj",
        "ungle"
      ],
      [
        "Ġst",
        "ep"
      ],
      [
        "Ġrock",
        "et"
      ],
      [
        "Ġdec",
        "or"
      ],
      [
        "ĠThe",
        "ir"
      ],
      [
        "ĠJ",
        "ake"
      ],
      [
        "ĠS",
        "ome"
      ],
      [
        "P",
        "lease"
      ],
      [
        "Ġsp",
        "icy"
      ],
      [
        "Ġneckl",
        "ace"
      ],
      [
        "ell",
        "y"
      ],
      [
        "o",
        "ld"
      ],
      [
        "D",
        "ad"
      ],
      [
        "Ġtreat",
        "s"
      ],
      [
        "Ġshe",
        "lf"
      ],
      [
        "Ġsc",
        "ar"
      ],
      [
        "get",
        "able"
      ],
      [
        "Ġhe",
        "l"
      ],
      [
        "ump",
        "y"
      ],
      [
        "ar",
        "m"
      ],
      [
        "Ġsh",
        "irt"
      ],
      [
        "Ġve",
        "getable"
      ],
      [
        "Ġfor",
        "ward"
      ],
      [
        "Ġspl",
        "ash"
      ],
      [
        "d",
        "ge"
      ],
      [
        "Ġte",
        "a"
      ],
      [
        "ll",
        "ie"
      ],
      [
        "Ġstick",
        "s"
      ],
      [
        "Ġle",
        "gs"
      ],
      [
        "Ġem",
        "p"
      ],
      [
        "N",
        "ow"
      ],
      [
        "Ġemp",
        "ty"
      ],
      [
        "in",
        "ted"
      ],
      [
        "Ġsa",
        "ve"
      ],
      [
        "h",
        "nn"
      ],
      [
        "Ġjump",
        "ing"
      ],
      [
        "Ġn",
        "ut"
      ],
      [
        "Ġp",
        "le"
      ],
      [
        "ĠA",
        "l"
      ],
      [
        "Ġgr",
        "ay"
      ],
      [
        "Ġwh",
        "is"
      ],
      [
        "Ġsh",
        "aring"
      ],
      [
        "Ġ",
        "'"
      ],
      [
        "Ġgre",
        "w"
      ],
      [
        "Ġb",
        "er"
      ],
      [
        "Ġshe",
        "ep"
      ],
      [
        "a",
        "king"
      ],
      [
        "Ġtight",
        "ly"
      ],
      [
        "ĠA",
        "nn"
      ],
      [
        "Ġland",
        "ed"
      ],
      [
        "M",
        "ama"
      ],
      [
        "mo",
        "st"
      ],
      [
        "Ġgen",
        "er"
      ],
      [
        "Ġme",
        "ant"
      ],
      [
        "Ġd",
        "eter"
      ],
      [
        "Ġash",
        "amed"
      ],
      [
        "Ġb",
        "al"
      ],
      [
        "Ġno",
        "ds"
      ],
      [
        "Ġdisapp",
        "o"
      ],
      [
        "Ġpill",
        "ow"
      ],
      [
        "ĠL",
        "isa"
      ],
      [
        "Ġdeter",
        "m"
      ],
      [
        "Ġal",
        "most"
      ],
      [
        "ir",
        "d"
      ],
      [
        "ĠT",
        "V"
      ],
      [
        "y",
        "ing"
      ],
      [
        "Ġhon",
        "est"
      ],
      [
        "hnn",
        "y"
      ],
      [
        "Ġp",
        "izz"
      ],
      [
        "i",
        "an"
      ],
      [
        "Ġs",
        "our"
      ],
      [
        "Ġgo",
        "ld"
      ],
      [
        "ĠW",
        "hy"
      ],
      [
        "ĠD",
        "on"
      ],
      [
        "Ġje",
        "w"
      ],
      [
        "B",
        "e"
      ],
      [
        "d",
        "le"
      ],
      [
        "Ġbre",
        "ath"
      ],
      [
        "Ġcar",
        "ried"
      ],
      [
        "Ġme",
        "adow"
      ],
      [
        "Ġunderst",
        "ood"
      ],
      [
        "an",
        "o"
      ],
      [
        "Ġ",
        "On"
      ],
      [
        "Ġyell",
        "ed"
      ],
      [
        "Ġst",
        "ood"
      ],
      [
        "Ġthe",
        "se"
      ],
      [
        "Ġv",
        "an"
      ],
      [
        "er",
        "p"
      ],
      [
        "Ġpol",
        "ice"
      ],
      [
        "Ġd",
        "rew"
      ],
      [
        "d",
        "en"
      ],
      [
        "g",
        "round"
      ],
      [
        "Ġse",
        "ed"
      ],
      [
        "St",
        "op"
      ],
      [
        "Ġp",
        "ay"
      ],
      [
        "Ġk",
        "itten"
      ],
      [
        "Ġwhis",
        "p"
      ],
      [
        "Ġsnack",
        "s"
      ],
      [
        "Ġprin",
        "ce"
      ],
      [
        "T",
        "o"
      ],
      [
        "n",
        "ed"
      ],
      [
        "Ġsuc",
        "cess"
      ],
      [
        "Ġfe",
        "ar"
      ],
      [
        "Ġb",
        "ored"
      ],
      [
        "Ġspark",
        "ly"
      ],
      [
        "g",
        "ly"
      ],
      [
        "Ġa",
        "v"
      ],
      [
        "Ġle",
        "m"
      ],
      [
        "it",
        "al"
      ],
      [
        "au",
        "l"
      ],
      [
        "Ġg",
        "un"
      ],
      [
        "Ġu",
        "gly"
      ],
      [
        "on",
        "y"
      ],
      [
        "Ġg",
        "as"
      ],
      [
        "Ġsh",
        "ore"
      ],
      [
        "Ġv",
        "ase"
      ],
      [
        "Ġdisappo",
        "inted"
      ],
      [
        "Ġho",
        "sp"
      ],
      [
        "h",
        "in"
      ],
      [
        "Ġl",
        "ine"
      ],
      [
        "or",
        "k"
      ],
      [
        "ust",
        "r"
      ],
      [
        "k",
        "in"
      ],
      [
        "Ġh",
        "ours"
      ],
      [
        "ĠT",
        "eddy"
      ],
      [
        "Ġhosp",
        "ital"
      ],
      [
        "Ġgr",
        "oup"
      ],
      [
        "ĠR",
        "ex"
      ],
      [
        "Ġcl",
        "ass"
      ],
      [
        "Ġpizz",
        "a"
      ],
      [
        "itt",
        "er"
      ],
      [
        "v",
        "ous"
      ],
      [
        "Ġsee",
        "k"
      ],
      [
        "Ġplant",
        "s"
      ],
      [
        "if",
        "f"
      ],
      [
        "Ġbl",
        "ow"
      ],
      [
        "Ġknow",
        "ing"
      ],
      [
        "Ġhid",
        "den"
      ],
      [
        "Ġgener",
        "ous"
      ],
      [
        "Ġreturn",
        "ed"
      ],
      [
        "Ġc",
        "ries"
      ],
      [
        "oo",
        "p"
      ],
      [
        "Ġt",
        "ent"
      ],
      [
        "Ġ",
        "Z"
      ],
      [
        "Ġpuzz",
        "le"
      ],
      [
        "ĠE",
        "ven"
      ],
      [
        "Sara",
        "h"
      ],
      [
        "Ġp",
        "ri"
      ],
      [
        "Ġmess",
        "y"
      ],
      [
        "Ġeas",
        "y"
      ],
      [
        "Ġfe",
        "ed"
      ],
      [
        "Ġpo",
        "or"
      ],
      [
        "Ġgl",
        "ass"
      ],
      [
        "Ġfr",
        "ustr"
      ],
      [
        "Ġstand",
        "ing"
      ],
      [
        "Ġsleep",
        "y"
      ],
      [
        "Ġp",
        "in"
      ],
      [
        "Ġwa",
        "ves"
      ],
      [
        "Ġj",
        "elly"
      ],
      [
        "Ġt",
        "est"
      ],
      [
        "Ġs",
        "ighed"
      ],
      [
        "Ġfan",
        "cy"
      ],
      [
        "The",
        "re"
      ],
      [
        "Ġfl",
        "ag"
      ],
      [
        "Ġsandw",
        "ich"
      ],
      [
        "Ġb",
        "urn"
      ],
      [
        "ĠM",
        "um"
      ],
      [
        "ĠTo",
        "gether"
      ],
      [
        "S",
        "orry"
      ],
      [
        "Ġthank",
        "ful"
      ],
      [
        "W",
        "here"
      ],
      [
        "Ġbed",
        "room"
      ],
      [
        "Ġpower",
        "ful"
      ],
      [
        "Ġsh",
        "ip"
      ],
      [
        "Ġt",
        "ick"
      ],
      [
        "Ġta",
        "ught"
      ],
      [
        "bo",
        "dy"
      ],
      [
        "Ġscar",
        "f"
      ],
      [
        "Ġso",
        "ld"
      ],
      [
        "Ġk",
        "issed"
      ],
      [
        "Ġn",
        "er"
      ],
      [
        "Ġcir",
        "c"
      ],
      [
        "ĠB",
        "e"
      ],
      [
        "l",
        "ower"
      ],
      [
        "Ġcr",
        "own"
      ],
      [
        "Ġp",
        "ir"
      ],
      [
        "Ġtw",
        "irl"
      ],
      [
        "er",
        "a"
      ],
      [
        "Ġb",
        "oring"
      ],
      [
        "'",
        "d"
      ],
      [
        "Ġde",
        "er"
      ],
      [
        "Ġm",
        "ot"
      ],
      [
        "ot",
        "e"
      ],
      [
        "Ġner",
        "vous"
      ],
      [
        "Ġre",
        "g"
      ],
      [
        "Ġcat",
        "erp"
      ],
      [
        "Ġcaterp",
        "ill"
      ],
      [
        "m",
        "b"
      ],
      [
        "Ġmyster",
        "ious"
      ],
      [
        "Ġte",
        "ars"
      ],
      [
        "ar",
        "l"
      ],
      [
        "Ġfrustr",
        "ated"
      ],
      [
        "Ġpol",
        "ite"
      ],
      [
        "Ġspo",
        "il"
      ],
      [
        "A",
        "re"
      ],
      [
        "a",
        "f"
      ],
      [
        "w",
        "ork"
      ],
      [
        "as",
        "sed"
      ],
      [
        "Ġp",
        "assed"
      ],
      [
        "Ġsc",
        "r"
      ],
      [
        "Ġclos",
        "et"
      ],
      [
        "Ġof",
        "ten"
      ],
      [
        "oo",
        "f"
      ],
      [
        "Ġh",
        "ur"
      ],
      [
        "Ġyour",
        "self"
      ],
      [
        "Ġdr",
        "op"
      ],
      [
        "Ġminut",
        "es"
      ],
      [
        "Ġha",
        "ng"
      ],
      [
        "o",
        "bby"
      ],
      [
        "Ġdeterm",
        "ined"
      ],
      [
        "Ġf",
        "ig"
      ],
      [
        "Ġle",
        "g"
      ],
      [
        "p",
        "ack"
      ],
      [
        "Ġr",
        "ad"
      ],
      [
        "Ġcl",
        "own"
      ],
      [
        "Ġget",
        "s"
      ],
      [
        "Ġexc",
        "ite"
      ],
      [
        "ens",
        "ive"
      ],
      [
        "sel",
        "ves"
      ],
      [
        "iss",
        "ors"
      ],
      [
        "in",
        "a"
      ],
      [
        "Ġf",
        "il"
      ],
      [
        "Ġg",
        "ate"
      ],
      [
        "Ġc",
        "ap"
      ],
      [
        "Ġexp",
        "ensive"
      ],
      [
        "Ġbr",
        "idge"
      ],
      [
        "Ġche",
        "w"
      ],
      [
        "Ġdan",
        "cing"
      ],
      [
        "id",
        "dle"
      ],
      [
        "Ġche",
        "st"
      ],
      [
        "Ġgather",
        "ed"
      ],
      [
        "l",
        "ight"
      ],
      [
        "Ġsc",
        "issors"
      ],
      [
        "J",
        "ane"
      ],
      [
        "Ġpick",
        "s"
      ],
      [
        "Ġfl",
        "ut"
      ],
      [
        "Ġsa",
        "ved"
      ],
      [
        "et",
        "s"
      ],
      [
        "Ġfing",
        "er"
      ],
      [
        "us",
        "ie"
      ],
      [
        "ill",
        "ed"
      ],
      [
        "Ġwa",
        "gged"
      ],
      [
        "at",
        "es"
      ],
      [
        "Ġ",
        "OK"
      ],
      [
        "u",
        "al"
      ],
      [
        "Ġes",
        "c"
      ],
      [
        "iz",
        "zy"
      ],
      [
        "Ġcaterpill",
        "ar"
      ],
      [
        "Ġwo",
        "lf"
      ],
      [
        "ĠLe",
        "o"
      ],
      [
        "Ġbo",
        "ss"
      ],
      [
        "Ġwa",
        "nder"
      ],
      [
        "os",
        "aur"
      ],
      [
        "Ġgr",
        "umpy"
      ],
      [
        "Ġdr",
        "um"
      ],
      [
        "Ġcomfort",
        "able"
      ],
      [
        "Ġlo",
        "ck"
      ],
      [
        "Ġpack",
        "ed"
      ],
      [
        "Ġqu",
        "een"
      ],
      [
        "Ġansw",
        "ered"
      ],
      [
        "o",
        "nd"
      ],
      [
        "Ġho",
        "pping"
      ],
      [
        "Ġwor",
        "king"
      ],
      [
        "ot",
        "s"
      ],
      [
        "Ġsp",
        "end"
      ],
      [
        "Ġdog",
        "s"
      ],
      [
        "Ġmist",
        "ake"
      ],
      [
        "Ġexcite",
        "ment"
      ],
      [
        "Ġl",
        "it"
      ],
      [
        "The",
        "ir"
      ],
      [
        "Ġm",
        "ummy"
      ],
      [
        "Ġdin",
        "osaur"
      ],
      [
        "Ġst",
        "uff"
      ],
      [
        "Ġta",
        "ken"
      ],
      [
        "ĠP",
        "eter"
      ],
      [
        "Ġc",
        "and"
      ],
      [
        "ĠB",
        "l"
      ],
      [
        "Ġkn",
        "ight"
      ],
      [
        "Ġvegetable",
        "s"
      ],
      [
        "u",
        "ce"
      ],
      [
        "Ġmed",
        "ic"
      ],
      [
        "Ġwhe",
        "el"
      ],
      [
        "Ġwalk",
        "s"
      ],
      [
        "Ġdraw",
        "ing"
      ],
      [
        "Ġm",
        "iddle"
      ],
      [
        "Ġp",
        "ress"
      ],
      [
        "Ġb",
        "one"
      ],
      [
        "g",
        "gs"
      ],
      [
        "Ġe",
        "ggs"
      ],
      [
        "ĠB",
        "r"
      ],
      [
        "Ġtr",
        "ue"
      ],
      [
        "Ġla",
        "zy"
      ],
      [
        "qu",
        "e"
      ],
      [
        "Ġlo",
        "se"
      ],
      [
        "Ġgigg",
        "led"
      ],
      [
        "Ġcra",
        "wl"
      ],
      [
        "Ġon",
        "es"
      ],
      [
        "Ġru",
        "ined"
      ],
      [
        "Ġfruit",
        "s"
      ],
      [
        "Ġm",
        "ir"
      ],
      [
        "Ġw",
        "is"
      ],
      [
        "W",
        "ho"
      ],
      [
        "Ġd",
        "est"
      ],
      [
        "ug",
        "ar"
      ],
      [
        "Ġcl",
[...]
